[PAD]
[CLS]
[SEP]
[UNK]
[MASK]
[ASP]
[emoji00]
[emoji01]
[emoji02]
[emoji03]
[emoji04]
[emoji05]
[emoji06]
[emoji07]
[emoji08]
[unused11]
[unused12]
[unused13]
[unused14]
[unused15]
[unused16]
[unused17]
[unused18]
[unused19]
[unused20]
[unused21]
[unused22]
[unused23]
[unused24]
[unused25]
[unused26]
[unused27]
[unused28]
[unused29]
[unused30]
[unused31]
[unused32]
[unused33]
[unused34]
[unused35]
[unused36]
[unused37]
[unused38]
[unused39]
[unused40]
[unused41]
[unused42]
[unused43]
[unused44]
[unused45]
[unused46]
[unused47]
[unused48]
[unused49]
[unused50]
[unused51]
[unused52]
[unused53]
[unused54]
[unused55]
[unused56]
[unused57]
[unused58]
[unused59]
[unused60]
[unused61]
[unused62]
[unused63]
[unused64]
[unused65]
[unused66]
[unused67]
[unused68]
[unused69]
[unused70]
[unused71]
[unused72]
[unused73]
[unused74]
[unused75]
[unused76]
[unused77]
[unused78]
[unused79]
[unused80]
[unused81]
[unused82]
[unused83]
[unused84]
[unused85]
[unused86]
[unused87]
[unused88]
[unused89]
[unused90]
[unused91]
[unused92]
[unused93]
[unused94]
[unused95]
[unused96]
[unused97]
[unused98]
[unused99]
[unused100]
!
#
$
%
&
(
)
*
+
,
-
.
/
0
1
2
3
4
5
6
7
8
9
:
;
<
=
>
?
@
A
B
C
D
E
F
G
H
I
J
K
L
M
N
O
P
Q
R
S
T
U
V
W
X
Y
Z
[
\
]
^
_
`
a
b
c
d
e
f
g
h
i
j
k
l
m
n
o
p
q
r
s
t
u
v
w
x
y
z
{
|
}
~
¡
£
¥
°
´
·
×
÷
ƒ
ƕ
ʔ
ʕ
ʚ
˂
˃
˘
˙
̀
́
̄
̆
̈
̊
̌
̎
̐
̑
̣
̤
̥
̩
̫
̮
̴
̵
̶
̷
̻
͈
͙
͡
ω
و
٩
۶
ෆ
ั
๑
ྪ
ღ
ᄀ
ᄃ
ᄉ
ᄋ
ᄌ
ᆞ
ᆢ
ᴗ
ᵔ
ᵕ
᷄
᷅
ṑ
—
―
‘
’
“
”
•
‥
…
※
‼
‿
⁼
₩
⃝
ℓ
↑
→
↓
∀
∇
∗
∼
≤
≥
⍤
━
╹
■
□
▶
▽
◀
◆
◇
○
●
◞
◟
◠
◡
★
☆
☞
☺
♀
♂
♡
♣
♤
♥
♧
♪
♬
✅
✌
✔
✧
✨
✺
❁
❗
❛
❣
❤
⠀
⫬
⭐
⸝
。
《
》
〰
ヲ
・
ㄱ
ㄲ
ㄳ
ㄴ
ㄵ
ㄶ
ㄷ
ㄸ
ㄹ
ㄺ
ㄻ
ㄼ
ㄽ
ㄾ
ㄿ
ㅀ
ㅁ
ㅂ
ㅃ
ㅄ
ㅅ
ㅆ
ㅇ
ㅈ
ㅉ
ㅊ
ㅋ
ㅌ
ㅍ
ㅎ
ㅏ
ㅐ
ㅑ
ㅒ
ㅓ
ㅔ
ㅕ
ㅖ
ㅗ
ㅘ
ㅙ
ㅚ
ㅛ
ㅜ
ㅝ
ㅞ
ㅟ
ㅠ
ㅡ
ㅢ
ㅣ
ㆍ
㎢
ꈍ
꙼
가
각
간
갇
갈
갉
감
갑
값
갓
갔
강
갖
갗
갘
같
갚
갛
개
객
갠
갤
갬
갭
갯
갰
갱
갸
갹
갼
걀
걈
걍
걑
걔
걘
거
걱
건
걷
걸
검
겁
것
겄
겅
겆
겉
겊
겋
게
겍
겎
겐
겔
겜
겝
겟
겠
겡
겢
겤
겧
겨
격
겪
견
겯
결
겸
겹
겻
겼
경
곁
계
곅
곗
곘
고
곡
곤
곧
골
곪
곬
곯
곰
곱
곳
공
곶
곷
곸
곺
곻
과
곽
관
괄
괌
광
괘
괜
괝
괞
괨
괭
괴
괵
괸
괼
굄
굉
교
굑
굗
굣
굥
구
국
굯
군
굳
굴
굵
굶
굼
굽
굿
궁
궂
궃
궅
궇
궈
권
궐
궛
궜
궤
귀
귄
귈
귐
귓
규
귝
균
귣
귤
귯
귱
그
극
귻
근
귿
글
긁
긇
금
급
긋
긍
긎
긐
긑
긓
긔
긘
긛
긧
긪
기
긱
긴
긷
길
긿
김
깁
깃
깄
깅
깆
깉
깊
깋
까
깍
깎
깐
깔
깜
깝
깟
깠
깡
깢
깥
깨
깬
깰
깸
깹
깻
깼
깽
꺄
꺅
꺌
꺠
꺼
꺽
꺾
껀
껄
껌
껍
껏
껐
껑
께
껜
껫
껬
껭
껴
꼇
꼈
꼍
꼐
꼬
꼭
꼰
꼳
꼴
꼼
꼽
꼿
꽁
꽂
꽃
꽈
꽉
꽌
꽝
꽤
꽥
꽹
꾀
꾐
꾜
꾸
꾹
꾼
꿀
꿇
꿈
꿉
꿋
꿍
꿎
꿔
꿧
꿨
꿩
꿰
꿴
꿸
뀌
뀐
뀔
뀜
뀝
뀠
뀨
끄
끅
끈
끊
끌
끍
끓
끔
끕
끗
끙
끝
끼
끽
낀
낄
낌
낍
낏
낑
나
낙
낚
난
낞
낟
날
낡
남
납
낫
났
낭
낮
낯
낰
낱
낲
낳
내
낵
낸
낼
냄
냅
냇
냈
냉
냏
냐
냑
냔
냘
냠
냣
냥
너
넉
넋
넌
넏
널
넒
넓
넖
넗
넘
넙
넚
넛
넜
넝
넞
넡
넢
넣
네
넥
넨
넫
넬
넴
넵
넷
넸
넹
녀
녁
년
녈
념
녓
녔
녕
녘
녜
녠
노
녹
논
녾
녿
놀
놈
놉
놋
농
놎
놑
높
놓
놔
놧
놨
놰
뇌
뇐
뇨
뇩
뇬
뇰
뇸
뇽
뇾
누
눅
눈
눋
눌
눔
눕
눗
눙
눚
눝
눞
눟
눠
눤
눴
눼
뉘
뉜
뉠
뉨
뉩
뉴
뉸
뉼
늄
늉
늎
느
늑
는
늕
늗
늘
늙
늠
늡
늣
능
늦
늧
늨
늩
늪
늫
늬
니
닉
닌
닏
닐
님
닙
닛
닜
닝
닞
닠
닢
닣
다
닥
닦
단
닫
달
닭
닮
닯
닳
담
답
닷
닸
당
닺
닻
닼
닽
닾
닿
대
댁
댄
댇
댈
댐
댑
댓
댔
댕
댖
댜
댝
댤
댱
더
덕
덖
던
덛
덜
덟
덤
덥
덧
덩
덪
덫
덮
덯
데
덱
덴
덷
델
뎀
뎁
뎃
뎄
뎅
뎈
뎌
뎍
뎐
뎠
뎡
뎨
뎬
도
독
돈
돋
돌
돔
돕
돗
동
돚
돛
돝
돞
돟
돠
돤
돨
돵
돼
됀
됄
됌
됍
됏
됐
되
됙
된
될
됨
됩
됫
됬
됭
됴
둉
두
둑
둔
둗
둘
둠
둡
둣
둥
둬
둿
뒀
뒈
뒤
뒥
뒷
뒹
듀
듁
듄
듇
듈
듐
듕
드
득
든
듣
들
듦
듬
듭
듯
등
듲
듵
듷
듸
딋
디
딕
딘
딛
딜
딤
딥
딧
딨
딩
딪
딫
딭
딯
따
딱
딲
딴
딷
딸
땀
땁
땃
땄
땅
땋
때
땍
땐
땔
땜
땟
땠
땡
땨
떄
떈
떙
떠
떡
떤
떨
떫
떱
떳
떴
떵
떻
떼
떽
뗀
뗄
뗌
뗏
뗐
뗑
뗘
뗴
또
똑
똔
똘
똠
똣
똥
똬
똭
뙇
뙈
뙤
뚜
뚝
뚠
뚤
뚫
뚬
뚯
뚱
뛰
뛴
뛸
뜀
뜁
뜌
뜨
뜩
뜬
뜯
뜰
뜷
뜸
뜹
뜻
뜽
띁
띄
띈
띌
띔
띕
띠
띡
띤
띨
띰
띱
띵
라
락
란
랂
랃
랄
람
랍
랏
랐
랑
랒
랔
랕
랖
랗
래
랙
랜
랟
랠
램
랩
랫
랬
랭
랮
랳
랴
략
랸
랻
랼
럄
럇
럈
량
러
럭
런
럳
럴
럼
럽
럾
럿
렀
렁
렂
렆
렇
레
렉
렌
렐
렘
렙
렛
렜
렝
려
력
련
렬
렴
렵
렷
렸
령
렿
례
롄
로
록
론
롣
롤
롬
롭
롯
롱
롲
롶
롷
롸
롼
뢔
뢰
뢴
뢸
룀
료
룐
룔
룜
룟
룡
루
룩
룬
룯
룰
룸
룹
룻
룽
룾
뤃
뤄
뤈
뤘
뤠
뤼
뤽
륀
륄
륌
류
륙
륜
률
륨
륭
륲
르
륵
른
륻
를
름
릅
릇
릉
릊
릎
릏
릐
리
릭
린
릳
릴
림
립
릿
맀
링
맂
맆
맇
마
막
만
맍
많
맏
말
맑
맗
맘
맙
맛
맜
망
맞
맟
맠
맡
맣
매
맥
맨
맬
맴
맵
맷
맸
맹
맺
맿
먀
먁
먄
먐
먕
머
먹
먼
먾
먿
멀
멈
멉
멋
멍
멎
멏
멓
메
멕
멘
멜
멤
멥
멧
멨
멩
며
멱
면
멸
몀
몃
몄
명
몆
몇
몈
몌
몐
모
목
몫
몬
몯
몰
몸
몹
못
몽
몾
뫃
뫄
뫼
묀
묄
묏
묘
묜
묨
묭
무
묵
묶
문
묻
물
묽
뭄
뭅
뭇
뭉
뭊
뭌
뭍
뭏
뭐
뭔
뭘
뭡
뭣
뭥
뮈
뮌
뮐
뮤
뮨
뮬
뮴
므
믄
믈
믐
믓
믕
믜
미
믹
민
믾
믿
밀
밈
밉
밋
밌
밍
밎
및
밑
바
박
밖
반
받
발
밝
밞
밟
밤
밥
밧
밨
방
밪
밭
배
백
밴
밷
밸
뱀
뱁
뱃
뱄
뱅
뱉
뱌
뱍
뱐
뱓
뱔
뱝
뱡
뱨
버
벅
번
벋
벌
범
법
벗
벙
벚
베
벡
벤
벧
벨
벰
벱
벳
벴
벵
벼
벽
변
별
볍
볏
볐
병
볒
볓
볕
볜
보
복
볶
본
볻
볼
봄
봅
봇
봉
봊
봏
봐
봑
봣
봤
봥
봫
봬
뵀
뵈
뵌
뵐
뵘
뵙
뵜
뵤
뵨
부
북
분
붇
불
붉
붐
붑
붓
붕
붙
붸
뷔
뷜
뷰
뷴
뷸
븀
브
븍
븏
븐
븓
블
븜
븝
븟
븡
븢
븥
븨
비
빅
빈
빋
빌
빔
빕
빗
빙
빚
빛
빠
빡
빤
빧
빨
빰
빱
빳
빴
빵
빻
빼
빽
뺀
뺄
뺌
뺍
뺏
뺐
뺑
뺘
뺨
뺴
뻐
뻑
뻔
뻗
뻘
뻣
뻤
뻥
뻬
뼈
뼉
뼘
뼛
뽀
뽁
뽂
뽄
뽈
뽐
뽑
뽕
뽝
뾰
뾱
뿅
뿌
뿍
뿐
뿔
뿜
뿝
뿡
뿨
쀼
쁌
쁘
쁙
쁜
쁠
쁨
쁩
쁭
쁮
쁴
삐
삑
삔
삘
삣
삥
사
삭
삮
삯
산
삳
살
삵
삶
삼
삽
삿
샀
상
샂
샄
샅
샆
샇
새
색
샌
샏
샐
샘
샙
샛
샜
생
샤
샥
샨
샬
샴
샵
샷
샸
샹
샾
섀
섐
섕
서
석
섞
선
섣
설
섦
섧
섬
섭
섯
섰
성
섲
섳
섴
섶
섷
세
섹
센
셀
셈
셉
셋
셌
셍
셑
셔
셕
션
셜
셤
셥
셧
셨
셩
셯
셰
셴
셸
솅
소
속
솎
손
솓
솔
솜
솝
솟
송
솢
솥
솧
솨
솽
쇄
쇠
쇤
쇳
쇼
쇽
숀
숃
숄
숌
숍
숏
숑
수
숙
숛
순
숟
술
숨
숩
숫
숭
숮
숯
숱
숲
숴
쉅
쉈
쉐
쉑
쉔
쉘
쉣
쉥
쉬
쉭
쉰
쉴
쉼
쉽
쉿
슁
슈
슉
슌
슐
슘
슙
슛
슝
스
슥
슧
슨
슫
슬
슭
슴
습
슷
승
슺
슾
슿
싀
싑
시
식
신
싣
실
싫
심
십
싯
싰
싱
싲
싳
싴
싶
싷
싸
싹
싼
쌀
쌈
쌉
쌋
쌌
쌍
쌓
쌔
쌕
쌘
쌤
쌥
쌨
쌩
쌰
썅
써
썩
썪
썬
썰
썸
썹
썻
썼
썽
쎄
쎈
쎌
쎔
쎕
쎗
쎘
쎠
쎼
쏘
쏙
쏜
쏟
쏠
쏨
쏩
쏭
쏴
쏵
쐈
쐐
쐬
쐴
쑈
쑤
쑥
쑨
쑬
쑴
쑵
쑹
쒀
쒸
쓩
쓰
쓱
쓴
쓸
쓹
씀
씁
씃
씅
씋
씌
씐
씨
씩
씬
씰
씸
씹
씻
씼
씽
아
악
앆
안
앉
않
앋
알
앍
앎
앏
앒
앓
암
압
앖
앗
았
앙
앚
앛
앜
앝
앞
앟
애
액
앤
앨
앰
앱
앳
앴
앵
야
약
얀
얃
얄
얅
얆
얇
얉
얊
얋
얌
얍
얏
얐
양
얒
얕
얖
얗
얘
얜
어
억
얶
언
얹
얺
얻
얼
얽
얾
엄
업
없
엇
었
엉
엊
엋
엌
엍
엎
엏
에
엑
엔
엗
엘
엠
엡
엣
엤
엥
여
역
엮
연
엳
열
엷
염
엽
엾
엿
였
영
옂
옄
옅
옆
옇
예
옌
옐
옘
옙
옛
옜
옝
오
옥
온
옫
올
옭
옮
옳
옴
옵
옶
옷
옸
옹
옺
옻
옼
옽
옾
옿
와
왁
완
왈
왐
왑
왓
왔
왕
왘
왛
왜
왝
왠
왤
왱
외
왼
욀
욋
욌
요
욕
욘
욛
욜
욤
욥
욧
용
욪
욫
욬
욭
욮
욯
우
욱
운
욷
울
움
웁
웂
웃
웅
웆
웇
웉
웊
웋
워
웍
원
월
웜
웟
웠
웡
웨
웩
웬
웰
웸
웹
웻
웽
위
윅
윈
윌
윔
윕
윗
윘
윙
유
육
윤
윧
율
윰
윱
윳
융
윷
윹
윺
윻
으
윽
은
읁
읃
을
읅
읊
음
읍
읎
읏
응
읒
읓
읔
읕
읖
읗
의
읜
읭
이
익
읶
인
읹
읺
읻
일
읽
잃
임
입
잆
잇
있
잉
잊
잋
잌
잍
잎
잏
자
작
잔
잖
잗
잘
잚
잛
잜
잟
잠
잡
잣
잤
장
잦
잧
잫
재
잭
잰
잳
잴
잼
잽
잿
쟀
쟁
쟂
쟈
쟉
쟌
쟎
쟏
쟐
쟙
쟜
쟝
쟤
저
적
전
젇
절
젊
젋
점
접
젓
젔
정
젖
젛
제
젝
젠
젤
젬
젭
젯
젱
젶
져
젹
젼
졀
졈
졉
졋
졌
졍
졎
졓
졔
조
족
졳
존
졷
졸
졿
좀
좁
좃
좄
종
좆
좇
좊
좋
좌
좍
좔
좝
좡
좥
좦
좨
좬
죄
죈
죌
죗
죙
죠
죡
죤
죵
죸
죻
주
죽
준
줃
줄
줌
줍
줏
중
줒
줕
줗
줘
줫
줬
줴
쥐
쥑
쥔
쥘
쥤
쥬
쥭
쥰
쥴
쥼
즁
즇
즈
즉
즌
즏
즐
즘
즙
즛
증
즞
즣
즤
지
직
진
짇
질
짊
짐
집
짓
징
짖
짗
짘
짙
짚
짛
짜
짝
짞
짠
짢
짤
짦
짧
짪
짬
짭
짯
짰
짱
째
짹
짼
쨈
쨉
쨋
쨌
쨍
쨔
쨩
쨰
쩅
쩌
쩍
쩐
쩔
쩜
쩝
쩡
쩨
쩬
쪄
쪗
쪘
쪙
쪹
쪼
쪽
쪾
쫀
쫄
쫌
쫍
쫑
쫒
쫓
쫗
쫘
쫙
쫜
쫠
쫭
쬐
쬔
쬘
쬠
쬬
쬰
쭈
쭉
쭌
쭐
쭘
쭙
쭝
쭤
쮸
쯔
쯤
쯧
쯩
찌
찍
찐
찔
찜
찝
찟
찡
찢
찧
차
착
찬
찮
찯
찰
찷
참
찹
찻
찼
창
찾
찿
챃
채
책
챈
챌
챔
챕
챗
챘
챙
챠
챡
챤
챦
챨
챱
챵
챻
처
척
천
첞
철
첨
첩
첫
첬
청
첮
첯
첳
체
첵
첸
첼
쳄
쳅
쳇
쳉
쳐
쳑
쳔
쳣
쳤
쳥
쳬
초
촉
촌
촏
촐
촘
촙
촛
총
촣
촤
촥
촨
촬
촵
촹
쵀
최
쵝
쵸
쵹
춍
추
축
춘
춚
출
춤
춥
춧
충
춪
춫
춮
춰
춴
췃
췄
췌
취
췬
츄
츈
츌
츙
츞
츠
측
츤
츨
츰
츱
층
츼
치
칙
친
칞
칠
칡
침
칩
칫
칭
칮
카
칵
칸
칼
캄
캅
캇
캉
캌
캍
캏
캐
캑
캔
캘
캠
캡
캣
캤
캥
캬
캭
캿
커
컥
컨
컫
컬
컴
컵
컷
컸
컹
컽
케
켁
켄
켈
켐
켑
켓
켔
켕
켜
켝
켠
켤
켯
켰
켸
코
콕
콘
콜
콤
콥
콧
콩
콬
콰
콱
콴
콸
쾀
쾅
쾌
쾐
쾡
쾨
쾰
쿄
쿠
쿡
쿤
쿨
쿰
쿱
쿳
쿵
쿸
쿼
퀀
퀄
퀘
퀠
퀭
퀴
퀵
퀸
퀼
큅
큉
큐
큘
큠
큨
크
큭
큰
클
큼
큽
큿
킁
킄
킈
키
킥
킨
킬
킴
킵
킷
킹
킼
타
탁
탄
탆
탈
탉
탐
탑
탓
탔
탕
탙
탛
태
택
탠
탤
탬
탭
탯
탰
탱
탸
탹
턋
턍
턓
터
턱
턴
털
텀
텁
텃
텄
텅
텇
텉
텋
테
텍
텐
텔
템
텝
텟
텡
텨
텼
톄
톈
토
톡
톤
톨
톰
톱
톳
통
톹
톺
톼
퇀
퇄
퇘
퇴
툇
툐
툥
투
툭
툰
툴
툼
툽
퉁
퉃
퉅
퉈
퉜
퉤
튀
튄
튈
튐
튑
튕
튜
튠
튤
튬
튭
튱
튵
트
특
튼
튿
틀
틈
틉
틋
틍
틑
틔
티
틱
틴
틷
틸
팀
팁
팃
팅
파
팍
팎
판
팔
팜
팝
팟
팠
팡
팥
패
팩
팬
팰
팸
팹
팻
팼
팽
퍄
퍅
퍈
퍙
퍼
퍽
펀
펄
펌
펍
펏
펐
펑
페
펙
펜
펠
펨
펩
펫
펭
펴
편
펺
펼
폄
폅
폇
폈
평
폐
포
폭
폰
폴
폼
폽
폿
퐁
퐈
퐉
퐝
푀
푄
표
푠
푯
푸
푹
푼
풀
풂
품
풉
풋
풍
풔
퓌
퓔
퓨
퓬
퓰
퓸
퓽
퓿
픁
프
픅
픈
플
픔
픕
픙
피
픽
핀
필
핌
핍
핏
핑
하
학
한
핟
할
핡
핥
핧
함
합
핫
핬
항
핮
핰
핱
핲
핳
해
핵
핶
핸
핻
핼
햄
햅
햇
했
행
햊
햌
햏
햐
햔
햘
햠
햡
햣
햤
향
햫
햬
햿
헀
허
헉
헌
헏
헐
험
헙
헛
헝
헞
헣
헤
헥
헨
헬
헴
헵
헷
헸
헹
헿
혀
혁
현
혈
혐
협
혓
혔
형
혜
호
혹
혼
혿
홀
홈
홉
홋
홍
홎
홑
홒
홓
화
확
환
활
홧
황
홰
홱
횃
회
획
횐
횔
횟
횡
효
횩
횻
횽
후
훅
훈
훌
훑
훔
훕
훗
훙
훟
훠
훤
훨
훵
훼
휀
휄
휑
휘
휙
휜
휠
휨
휩
휫
휭
휴
휸
휼
흄
흉
흎
흐
흑
흔
흗
흘
흙
흠
흡
흣
흥
흩
흫
희
흰
히
힉
힌
힏
힐
힘
힙
힛
힝
힞
힢
힣
︎
️
！
？
｀
～
｡
･
￦
𐌅
𐨛
𓂭
🌝
🌟
🌷
🌸
🎶
🏻
🏼
🏽
🏾
🏿
🐶
👀
👉
👋
👌
👍
👏
💓
💕
💖
💗
💘
💙
💚
💛
💜
💝
💞
💪
💯
🔥
🖒
🖤
😀
😁
😂
😃
😄
😅
😆
😇
😉
😊
😋
😌
😍
😎
😏
😖
😗
😘
😙
😚
😛
😝
😢
😥
😭
😱
😳
😻
🙂
🙃
🙄
🙆
🙇
🙈
🙊
🙋
🙌
🙏
🤍
🤎
🤔
🤗
🤟
🤣
🤦
🤩
🤭
🥰
🥲
🥳
🥺
🧡
##a
##n
##g
##i
##e
##d
##m
##s
##o
##r
##ㅍ
##저
##ㅣ
##처
##ㅈ
##치
##ㅓ
##ㅁ
##ㅎ
##ㄴ
##ㄹ
##ㅇ
##ㅂ
##ㅌ
##려
##서
##u
##l
##t
##5
##7
##0
##🏻
##디
##테
##일
##은
##p
##v
##k
##j
##h
##ㅠ
##유
##효
##기
##간
##도
##1
##4
##C
##L
##Q
##y
##욧
##섀
##이
##드
##용
##으
##로
##선
##택
##입
##니
##다
##레
##스
##ㄱ
##양
##고
##추
##늣
##코
##틴
##아
##떨
##어
##져
##요
##z
##토
##c
##만
##촉
##족
##면
##앞
##길
##가
##대
##홍
##ㅏ
##ㅗ
##프
##랑
##ㅋ
##여
##ㅜ
##신
##발
##정
##품
##인
##지
##챦
##많
##혼
##러
##ㅐ
##뎌
##/
##;
##-
##%
##캔
##O
##K
##Y
##닉
##리
##먼
##바
##더
##위
##업
##한
##눈
##썹
##ㄷ
##ㅅ
##ㅡ
##ㅊ
##쇼
##버
##카
##엋
##피
##퍼
##투
##q
##쉼
##틔
##쁨
##꽃
##ㄸ
##노
##트
##북
##에
##춘
##루
##케
##ㄾ
##시
##블
##라
##티
##직
##브
##승
##진
##ㆍ
##븡
##슥
##같
##운
##반
##w
##심
##림
##박
##혀
##색
##했
##는
##데
##타
##차
##국
##재
##ㅔ
##호
##메
##ㅑ
##ㅕ
##ㅛ
##천
##수
##나
##하
##셨
##미
##ㅘ
##ㅀ
##모
##거
##그
##삿
##엇
##B
##I
##S
##f
##게
##네
##6
##애
##현
##몬
##필
##너
##며
##뉴
##뮤
##회
##윽
##N
##조
##좌
##옺
##콘
##래
##느
##낼
##우
##닌
##핳
##새
##퓨
##해
##남
##성
##분
##들
##졌
##알
##았
##무
##히
##제
##궁
##괄
##자
##E
##P
##오
##ㅟ
##ᆢ
##깔
##끔
##푀
##르
##역
##배
##송
##2
##희
##쓰
##음
##질
##된
##객
##b
##틍
##샏
##츠
##퍄
##잳
##쿵
##주
##춪
##겠
##보
##임
##앉
##형
##률
##<
##~
##런
##9
##8
##3
##좋
##력
##세
##떼
##내
##께
##당
##젤
##륵
##쭈
##논
##돌
##섰
##소
##듯
##되
##커
##경
##덩
##굴
##마
##허
##깅
##벽
##장
##식
##냐
##둘
##V
##렴
##몸
##워
##널
##의
##꾸
##불
##ㄳ
##극
##딯
##쇠
##견
##닏
##짇
##ᆞ
##ㅢ
##딛
##탸
##까
##댜
##퉅
##헬
##쥬
##껀
##삭
##햫
##두
##껍
##구
##키
##귀
##짝
##달
##싹
##득
##왜
##높
##센
##눙
##비
##낭
##찻
##솔
##좀
##옷
##엔
##교
##포
##R
##친
##앜
##약
##결
##과
##엄
##힘
##듦
##츄
##터
##죠
##튵
##튜
##료
##웡
##을
##긔
##닞
##사
##뇨
##머
##털
##쟈
##D
##U
##뻐
##봤
##녀
##누
##든
##크
##황
##또
##셔
##룩
##쿠
##초
##겨
##푸
##획
##를
##넌
##울
##덕
##잇
##합
##익
##x
##줫
##짱
##쁘
##매
##굉
##침
##ㄻ
##뻘
##개
##룾
##섶
##패
##규
##중
##단
##닝
##멀
##란
##^
##본
##A
##늘
##공
##연
##홧
##팅
##촌
##풋
##감
##햤
##듀
##쳐
##채
##웆
##석
##벌
##원
##숭
##T
##깃
##찬
##앗
##써
##G
##벼
##헝
##섭
##동
##툐
##갈
##엉
##폰
##꼬
##슬
##텐
##*
##!
##른
##짐
##량
##넹
##난
##봉
##준
##놰
##뉘
##먀
##부
##F
##■
##□
##>
##븍
##귻
##긧
##뿌
##글
##산
##놓
##온
##베
##젠
##ㄿ
##섯
##슛
##솧
##셧
##복
##긱
##론
##생
##각
##맨
##턴
##슴
##긍
##텉
##건
##낙
##멓
##맣
##흫
##먹
##ㄶ
##W
##숫
##굿
##병
##욘
##첳
##페
##강
##쥐
##뿔
##햇
##때
##ㅆ
##펩
##샐
##급
##검
##갔
##쵸
##콜
##릿
##”
##통
##립
##즌
##걸
##망
##와
##항
##상
##:
##류
##야
##편
##함
##냥
##텨
##펴
##파
##체
##팔
##방
##듈
##잘
##킹
##M
##참
##롱
##꼭
##즈
##멍
##쓸
##영
##얀
##염
##착
##Z
##🥰
##👏
##올
##@
###
##&
##랜
##담
##탄
##릴
##랙
##렬
##절
##휴
##뭐
##벡
##물
##옥
##혈
##목
##넘
##김
##램
##문
##핏
##었
##변
##능
##즏
##찌
##닷
##얼
##칭
##밀
##출
##꿀
##렸
##번
##못
##킬
##판
##😊
##😻
##근
##등
##창
##학
##갬
##냄
##완
##전
##캠
##핑
##슷
##충
##따
##혓
##멋
##있
##별
##？
##관
##할
##씌
##ㅝ
##▽
##♡
##안
##왓
##묵
##줄
##언
##갸
##찮
##헤
##잫
##령
##롲
##응
##듷
##습
##짜
##증
##최
##늬
##혜
##종
##존
##름
##슈
##렉
##예
##밍
##훈
##싸
##닥
##큐
##명
##앛
##걱
##민
##뮬
##융
##즤
##권
##곱
##화
##빠
##딩
##점
##숙
##웠
##묻
##랴
##적
##외
##악
##폭
##탈
##앝
##됴
##읏
##윤
##행
##없
##욤
##집
##긴
##후
##흥
##태
##폴
##숑
##쪽
##욱
##짖
##훅
##ㅞ
##궇
##것
##실
##롸
##땅
##술
##린
##군
##흐
##뫄
##딤
##넝
##딪
##싲
##듭
##탁
##헣
##캬
##둬
##광
##설
##웨
##쩐
##얍
##앙
##샀
##특
##징
##청
##븐
##말
##략
##금
##깆
##꺼
##웇
##냉
##쮸
##곧
##잔
##릭
##늑
##롬
##퉈
##랗
##혹
##던
##범
##향
##H
##뜩
##웅
##균
##잉
##딧
##섹
##례
##닦
##ㄲ
##퐈
##순
##갑
##빈
##욭
##낱
##젖
##몫
##막
##싯
##냏
##멈
##묘
##낳
##쬰
##샴
##냠
##윺
##작
##읍
##옹
##삐
##뚤
##긷
##확
##룡
##둥
##럼
##햐
##릇
##평
##슐
##텍
##킨
##년
##겐
##휘
##손
##듬
##활
##옿
##링
##웃
##듕
##륀
##ㅉ
##락
##퐉
##델
##뇽
##찰
##떡
##돠
##퇘
##냇
##탛
##날
##굼
##쉽
##움
##홀
##람
##협
##렁
##계
##속
##춫
##환
##쉬
##웟
##$
##듇
##돈
##뤼
##₩
##ㄼ
##샇
##챃
##랫
##얄
##캐
##밈
##뷔
##긘
##므
##묭
##찐
##핱
##큼
##톡
##욛
##였
##뜨
##낫
##넬
##붙
##눝
##펫
##낚
##랟
##삼
##압
##격
##끈
##덜
##헐
##섷
##굗
##놀
##♥
##깨
##뺨
##|
##]
##£
##\
##{
##•
##십
##빼
##튼
##늩
##틑
##늧
##핵
##맹
##푼
##빧
##쁜
##넣
##놑
##갠
##¥
##,
##’
##츤
##열
##싫
##텔
##잼
##엎
##볼
##록
##즞
##섬
##튠
##곡
##콤
##샤
##멜
##빵
##럴
##백
##싱
##듸
##철
##잠
##봄
##겟
##흔
##클
##춤
##엠
##=
##랄
##휸
##혿
##잖
##곤
##큰
##홓
##ㅚ
##표
##갓
##끕
##ㅙ
##륭
##썽
##😃
##살
##율
##농
##욯
##괜
##숟
##뱌
##앵
##붕
##엣
##엥
##풔
##엌
##쯔
##J
##몯
##힝
##럭
##맬
##월
##몰
##줃
##줬
##볐
##믈
##챠
##싣
##렌
##빨
##쳬
##댤
##탱
##븟
##븝
##맛
##플
##뒷
##럽
##암
##봐
##쟏
##흘
##싼
##♤
##톤
##슺
##뽕
##팬
##됨
##낸
##낄
##켜
##졋
##첨
##칼
##붓
##펄
##ㄺ
##닼
##띠
##봊
##셰
##욬
##♪
##댖
##깐
##욕
##땡
##넷
##궃
##육
##듣
##★
##않
##ㄽ
##독
##풀
##렘
##츈
##납
##맞
##죽
##쨍
##댓
##늦
##첼
##얘
##뜻
##톱
##밥
##_
##곳
##톹
##늄
##윻
##릉
##짓
##뢔
##빛
##몆
##X
##됐
##´
##･
##∀
##｀
##펜
##맥
##훙
##밤
##뀐
##졸
##뒤
##벨
##늡
##킴
##줕
##빌
##줘
##쁠
##죄
##낌
##뿐
##놔
##뒀
##긋
##걍
##낟
##빗
##챙
##넓
##텀
##틸
##☆
##쥴
##딴
##슨
##칠
##탕
##옆
##몇
##😉
##쬬
##옴
##샥
##겅
##쉰
##솽
##받
##샨
##옮
##룬
##랍
##딋
##션
##롤
##귤
##펼
##룰
##님
##탆
##법
##왕
##💚
##답
##쟁
##쟎
##잡
##둡
##먿
##싶
##얗
##밋
##맘
##욪
##웜
##잃
##홰
##총
##축
##덧
##녹
##즙
##끼
##째
##씁
##컬
##눤
##핰
##혁
##삽
##뢰
##펠
##콩
##앟
##륙
##돟
##닭
##둔
##잰
##흑
##밪
##슫
##엽
##퓿
##퓬
##틷
##ㅃ
##닐
##늠
##잎
##앤
##턋
##턓
##+
##귿
##뭇
##웍
##앚
##🙋
##옵
##캘
##첫
##풍
##딱
##🙃
##🙂
##뎠
##깡
##넉
##뎨
##텋
##톼
##홎
##챈
##옽
##닫
##춰
##힐
##흠
##옛
##럿
##섳
##샌
##젛
##😭
##갹
##맏
##웊
##뮈
##훔
##뤃
##핫
##쾌
##칡
##씀
##룽
##훗
##깎
##접
##뭘
##땍
##텅
##궈
##헌
##빋
##븓
##씻
##쁩
##)
##볶
##퓌
##휼
##흄
##륨
##험
##취
##넴
##넡
##옫
##얃
##쩌
##빔
##벰
##엘
##찾
##👍
##겔
##삶
##났
##윈
##깰
##꼼
##빽
##렂
##녕
##칙
##벙
##책
##귱
##둗
##덯
##😁
##깜
##빡
##즛
##켈
##캣
##팀
##힌
##탬
##틀
##렇
##귓
##퀴
##틱
##괘
##겄
##뚠
##쓴
##볒
##뽀
##룸
##딘
##븨
##츼
##밌
##액
##뻔
##샘
##밟
##됩
##꿈
##캡
##끄
##셥
##숏
##옭
##.
##킥
##뇸
##묨
##골
##돋
##웁
##얇
##핮
##닿
##힏
##럳
##졷
##슭
##즉
##❛
##둣
##ᄀ
##녿
##욥
##읖
##렛
##렝
##좁
##쌀
##갖
##탓
##깻
##믄
##롶
##캌
##랃
##셴
##젇
##멎
##댈
##믿
##봇
##콕
##낞
##핀
##켄
##돔
##솓
##굳
##넗
##샹
##컴
##웉
##헨
##엿
##껄
##셕
##겻
##씨
##ㄵ
##퀸
##펙
##쨰
##꺄
##}
##캄
##눌
##홋
##솟
##셯
##햄
##똔
##줌
##😘
##벅
##컵
##겸
##끗
##켰
##즘
##땐
##홈
##쌨
##찢
##칸
##퓸
##낮
##앋
##템
##뿝
##짬
##횻
##껏
##픈
##떠
##넏
##뺀
##걷
##깍
##랠
##늉
##쟝
##겉
##쪼
##둉
##멧
##ᄋ
##컨
##녁
##멱
##밝
##렐
##듄
##쪾
##♣
##좡
##맟
##찍
##찜
##탐
##딸
##눠
##덛
##흡
##묶
##🧡
##돼
##놈
##덴
##셋
##😆
##찷
##랭
##캍
##랔
##🖤
##잍
##😀
##쵝
##몽
##뻑
##밖
##녓
##윹
##펌
##랐
##밭
##붑
##뜌
##썼
##폼
##슝
##읜
##얻
##뇌
##탙
##뭉
##얾
##혔
##꿔
##련
##슾
##냔
##띵
##`
##둑
##퉃
##툼
##롭
##냑
##랏
##펏
##롯
##릳
##햠
##듁
##쎄
##갛
##궐
##햏
##♧
##숨
##◇
##톨
##긎
##닻
##똥
##뱓
##륻
##댝
##ㅖ
##늗
##뽁
##눕
##뫼
##밴
##앰
##곶
##ᄃ
##척
##뽄
##폐
##쌌
##톰
##봣
##읻
##눗
##씸
##됬
##쿄
##쏙
##룹
##쬐
##햔
##괴
##댄
##겁
##쇽
##퉁
##쳤
##픁
##젭
##왔
##곻
##숃
##땜
##ㅒ
##픽
##뼈
##셜
##셩
##챱
##볍
##뚯
##렆
##엍
##긓
##캏
##뾱
##믕
##뭅
##죵
##뚝
##폈
##쳔
##멸
##값
##꿋
##맡
##깉
##꿍
##럄
##넒
##뻣
##벋
##옾
##촤
##쿸
##놎
##😍
##뀠
##돗
##웋
##늫
##툰
##륜
##눞
##닺
##흣
##곰
##흰
##🤍
##💛
##💜
##츨
##엑
##웰
##낵
##뻬
##숩
##🤩
##뎅
##닙
##숮
##쿤
##딕
##잴
##닛
##슘
##갗
##쿨
##쉭
##뚜
##껑
##둠
##퀄
##랸
##🙏
##늨
##찹
##°
##힙
##얏
##죻
##댇
##쳉
##[
##랒
##넋
##싳
##쇄
##캿
##좍
##챵
##💙
##ㅄ
##굣
##슉
##뱅
##릅
##롷
##쪘
##젱
##낯
##쫀
##쳣
##씽
##😇
##뺐
##깢
##👀
##켓
##딜
##껴
##팩
##😄
##꺠
##넞
##땨
##넨
##핻
##쵀
##촣
##빅
##념
##괸
##팹
##뭄
##헴
##셉
##퇴
##켔
##◆
##싀
##멘
##돚
##졀
##뮨
##앎
##몹
##빕
##벧
##렷
##퓽
##텇
##욫
##읁
##썩
##💯
##꽉
##횩
##쫗
##힣
##칫
##멉
##흎
##릐
##읃
##츞
##쑤
##뫃
##눋
##억
##콧
##탉
##뤄
##쩔
##옇
##샵
##멤
##쨈
##겊
##픔
##좔
##빚
##핸
##팰
##녾
##잭
##샂
##(
##갇
##탑
##큨
##뉸
##🖒
##쉐
##춮
##훼
##빙
##첮
##샬
##멏
##펭
##롣
##겋
##욜
##츙
##읔
##퐁
##먕
##깝
##싑
##맠
##벤
##겹
##끊
##꼈
##뭔
##잋
##튤
##휜
##🙆
##쏘
##쭉
##쫌
##𐨛
##𐌅
##뎍
##얌
##펀
##̷
##탯
##먄
##촵
##룀
##쩅
##륲
##찔
##쵹
##·
##섞
##밑
##녜
##찿
##눟
##깄
##딭
##훨
##씬
##—
##쯧
##뱍
##♀
##벚
##켯
##톳
##팡
##꺽
##틈
##녔
##쟂
##엡
##셀
##쯤
##뽑
##듵
##첞
##돕
##｡
##옅
##욮
##풂
##핼
##긛
##냅
##윅
##줏
##콬
##샷
##퓰
##냣
##맸
##뮴
##퐝
##벗
##젬
##잽
##즐
##뷰
##팥
##젓
##밧
##퉤
##춧
##팟
##갱
##봅
##뎡
##썸
##￦
##썻
##꾹
##옐
##팎
##잗
##줒
##넜
##귝
##뮌
##쨋
##롼
##헿
##😱
##덮
##폿
##춚
##쟙
##홒
##첸
##뱃
##🏼
##낲
##뵤
##멩
##먐
##닸
##💗
##넙
##●
##○
##¡
##》
##《
##댕
##탠
##💪
##팜
##?
##묜
##🤦
##찡
##랻
##눼
##퍽
##왁
##댁
##먁
##맙
##턱
##숀
##뇬
##붐
##걀
##텁
##칩
##앳
##뜯
##좝
##쏜
##끓
##뇰
##💖
##닠
##넥
##랖
##랮
##눚
##밉
##맂
##댔
##섣
##랕
##쓱
##룻
##팠
##솢
##샛
##햊
##👌
##딫
##솜
##😚
##벳
##흉
##믐
##🥺
##덤
##킷
##😋
##층
##놋
##킄
##햬
##묽
##젯
##븏
##😳
##잆
##뉼
##앆
##캅
##튀
##앱
##푹
##짘
##큽
##뎬
##굥
##쫭
##❤
##윙
##잦
##뚱
##됫
##⠀
##훌
##좊
##겍
##ෆ
##갘
##핲
##꽁
##쿼
##똑
##덷
##렀
##칮
##🤗
##윌
##쌍
##셍
##릎
##닽
##꽤
##툴
##꽈
##궤
##헉
##겼
##뗀
##텡
##햣
##볜
##쫠
##몀
##쩍
##쩝
##쏴
##햅
##낀
##뎈
##캉
##뺘
##귣
##윱
##뷸
##젝
##긁
##👋
##╹
##튱
##끝
##빤
##왈
##👉
##🌷
##겝
##뎃
##뜸
##윗
##랩
##᷅
##랼
##듐
##◟
##갚
##쁌
##슙
##겜
##좆
##⭐
##잏
##넫
##왼
##🙌
##🤣
##😅
##팍
##짧
##꼐
##팝
##덱
##꼽
##춴
##찝
##갭
##핟
##쭙
##땁
##헏
##뀌
##긪
##탤
##즣
##넛
##렵
##콥
##퀀
##읶
##훠
##읕
##챤
##숛
##댐
##헞
##찯
##ᄌ
##엏
##퇀
##퍙
##훑
##똠
##뒥
##챡
##놉
##짗
##뚫
##잣
##귄
##꽂
##켝
##섲
##챻
##쌤
##딷
##ᄉ
##엊
##퓔
##헹
##숍
##・
##럈
##삯
##챌
##늙
##잊
##놨
##죙
##솝
##‘
##🎶
##톺
##좃
##츰
##힢
##혐
##닣
##뛰
##짙
##곺
##깊
##씩
##맷
##덪
##맵
##쨌
##줍
##쌈
##옼
##츌
##썬
##뻥
##밷
##읒
##밎
##믹
##짚
##맇
##덫
##윷
##켤
##얒
##🏾
##룔
##훕
##콱
##✌
##💕
##쩡
##좦
##ღ
##갯
##갤
##튬
##첩
##뇐
##닳
##슌
##쥰
##촙
##핌
##겎
##볻
##욷
##큘
##숴
##겡
##릏
##눔
##좨
##읓
##웬
##굽
##궂
##헛
##돨
##첯
##콸
##짼
##귯
##븀
##겧
##꼴
##뎁
##쑥
##잛
##켁
##겯
##갼
##뺏
##겆
##욋
##퍈
##꽝
##햘
##벱
##꼰
##횽
##😗
##푠
##윰
##쳅
##쥼
##짯
##잿
##촬
##덥
##튿
##🤭
##렙
##첵
##뾰
##뭏
##옄
##땀
##쳑
##큿
##빴
##췌
##🌟
##떄
##텃
##옂
##즇
##쫍
##뜬
##😎
##랬
##렿
##꿉
##펑
##뀨
##큅
##쟌
##늎
##왠
##▶
##캇
##딥
##팽
##켑
##챨
##쌔
##쏭
##젊
##읽
##“
##껌
##뱡
##옌
##쪄
##졍
##및
##엗
##즁
##돵
##쩨
##넸
##몐
##쨔
##쓹
##붇
##짠
##잌
##뤠
##짛
##컽
##윧
##섴
##떱
##닢
##꾼
##늕
##쌓
##컷
##옶
##괭
##앨
##떤
##눅
##쎠
##꿨
##읗
##럇
##킁
##측
##햌
##뱐
##뿍
##툭
##촨
##쨩
##걈
##곽
##벵
##깥
##쥑
##팸
##돞
##돛
##쁴
##햡
##싷
##댱
##홑
##̎
##뻤
##옻
##쥔
##넢
##돝
##쩜
##췄
##훟
##봏
##쐬
##찼
##죡
##━
##쑴
##헷
##쉈
##굑
##횐
##얕
##죤
##닾
##떻
##믜
##샅
##겢
##뭍
##촥
##◞
##칞
##흩
##듲
##궅
##쉣
##될
##뜽
##앓
##힞
##힛
##〰
##뭊
##웽
##룜
##빰
##봥
##틋
##쳥
##젼
##빳
##뜰
##🥳
##삥
##흙
##냘
##😌
##됌
##댑
##졉
##뵈
##ʔ
##샸
##맴
##💝
##턍
##깁
##뷴
##뿡
##꼇
##쿰
##펺
##켠
##끌
##😛
##졎
##탭
##뇾
##촛
##읺
##낏
##탹
##굵
##틉
##짊
##쾨
##팁
##릊
##븢
##읭
##섦
##긐
##픙
##🙄
##🤔
##냈
##귈
##촘
##컹
##깟
##춍
##톈
##킼
##͈
##̮
##❣
##걑
##룯
##슧
##옳
##앏
##옘
##팃
##룟
##숄
##솥
##곸
##톄
##힉
##픕
##옝
##캭
##띌
##얶
##툥
##쫜
##씹
##컥
##얋
##꿧
##슿
##뱁
##뱄
##ᴗ
##볏
##💘
##숱
##뒹
##췬
##퀘
##◡
##✧
##뽝
##훤
##숌
##팻
##๑
##왐
##뮐
##흗
##！
##튐
##떵
##퀵
##좄
##붉
##큭
##푯
##🙈
##빻
##😖
##졈
##뉨
##믾
##옙
##뿜
##셈
##윳
##믓
##😂
##몾
##뎀
##얺
##죸
##뎐
##똭
##̻
##퇄
##븜
##셤
##쐐
##셌
##춥
##︎
##옸
##쫄
##쿡
##밸
##샙
##촐
##̑
##좇
##텝
##쉴
##뺑
##엤
##뎄
##썪
##꺅
##맿
##뱔
##펍
##갰
##💞
##쥭
##삘
##졓
##줗
##핬
##콴
##쟉
##삳
##샆
##괵
##젹
##낰
##촏
##̈
##숲
##몈
##굶
##롄
##챕
##륌
##𓂭
##붸
##⸝
##맆
##쭝
##뼛
##뼘
##꿰
##녘
##×
##귐
##쪙
##챗
##😏
##괌
##콰
##챔
##잧
##※
##😢
##솨
##뿅
##쑬
##🏽
##맑
##짢
##☞
##긑
##웩
##😝
##꺌
##🌝
##꼿
##넖
##쌩
##뱀
##✺
##꺾
##쁙
##껭
##켸
##샜
##쑈
##늪
##헙
##쫙
##밨
##곷
##쪹
##쳇
##쌘
##텟
##똘
##됀
##빱
##셸
##됏
##쏠
##캑
##퀼
##♬
##◀
##뇩
##녈
##٩
##앴
##룐
##홉
##뜀
##맀
##엾
##˙
##쒸
##튕
##。
##낡
##횡
##짭
##뤈
##잟
##🐶
##닜
##홱
##싰
##쌰
##낑
##❗
##왛
##쭐
##🌸
##뗴
##웹
##젶
##🥲
##볕
##🤎
##쟜
##😙
##괨
##̥
##얹
##앖
##뗘
##덟
##뙤
##훵
##뵜
##랂
##풉
##🙇
##폽
##몃
##뙇
##씃
##쏨
##땋
##깠
##땃
##💓
##깋
##뱉
##캥
##폇
##ʕ
##곁
##둿
##놧
##쉔
##앒
##‥
##엳
##떳
##퍅
##꾜
##췃
##얅
##꿩
##쎼
##뗄
##폄
##땟
##띔
##괝
##☺
##왤
##쭌
##뵐
##✨
##쇤
##쿳
##큠
##헀
##쾅
##뭣
##쨉
##÷
##맍
##먾
##끅
##짞
##쭤
##럾
##뺄
##껐
##띰
##̀
##뽈
##됭
##휠
##짤
##뛸
##맺
##읹
##🏿
##멕
##땠
##킵
##뺴
##걔
##️
##굯
##깽
##◠
##뵘
##휀
##뭡
##컸
##헵
##∇
##🤟
##끙
##쌕
##끽
##쀼
##‿
##곯
##뱝
##쟐
##괞
##쿱
##캤
##샾
##씰
##≤
##㎢
##쌉
##낍
##왑
##씅
##✅
##✔
##횟
##삑
##쉘
##̴
##̶
##̆
##탔
##͙
##쇳
##죗
##킈
##썰
##잜
##휫
##곗
##쾡
##쭘
##륄
##🔥
##궛
##켐
##휙
##뀜
##좥
##쳄
##띱
##왘
##̵
##́
##🙊
##띡
##쬠
##뼉
##샄
##썅
##볓
##딲
##쫑
##쌋
##곪
##딨
##ʚ
##͡
##↑
##튭
##쉑
##뭌
##껬
##ᵕ
##툽
##윘
##윔
##꾀
##튄
##졿
##핍
##찟
##휨
##얜
##읊
##뷜
##뵙
##읎
##뢴
##랳
##❁
##튑
##‼
##…
##쑹
##핥
##몌
##봬
##뉜
##젔
##삔
##욀
##켕
##쥘
##뻗
##휭
##꽥
##핧
##갉
##숯
##괼
##삣
##넵
##↓
##뢸
##쎌
##쫓
##닮
##♂
##꼳
##잚
##븥
##떙
##→
##쫘
##똬
##픅
##̤
##̫
##횃
##ƒ
##칵
##얊
##궜
##솎
##뒈
##휑
##띄
##̣
##묏
##뵌
##얆
##띤
##뤽
##떽
##찧
##씋
##펐
##뚬
##쎗
##맜
##폅
##잤
##쩬
##뺍
##죌
##뵨
##펨
##엮
##뽐
##얖
##츱
##뵀
##뺌
##ᵔ
##묄
##욌
##̩
##젋
##😥
##쾐
##싴
##섧
##뭥
##꿇
##핡
##줴
##핶
##헥
##ヲ
##졔
##쑵
##얐
##쎈
##뀔
##뜹
##멥
##얽
##떈
##넚
##쌥
##햿
##촹
##쒀
##녠
##첬
##봫
##짦
##쁭
##휄
##―
##띨
##뗌
##눴
##돤
##앍
##꼍
##ꈍ
##쫒
##슁
##～
##뿨
##띕
##왱
##닯
##뉠
##땄
##뤘
##و
##뽂
##뱨
##웸
##껫
##씐
##졳
##맗
##땔
##헸
##쓩
##횔
##겤
##똣
##푄
##쟤
##뗐
##꽹
##봑
##ṑ
##깸
##쏟
##쉿
##⫬
##뗑
##됄
##읅
##엷
##몄
##됍
##쪗
##쬘
##삮
##긿
##곬
##떴
##굄
##컫
##꿎
##뗏
##윕
##̊
##쯩
##탰
##짰
##묀
##쎕
##섕
##짹
##쉥
##곘
##뙈
##됙
##᷄
##껜
##뉩
##덖
##띈
##솅
##쁮
##겪
##˘
##뀝
##꾐
##쟀
##깹
##텄
##죈
##∼
##쑨
##∗
##멨
##떫
##˃
##쬔
##챘
##웻
##띁
##쾀
##짪
##쎔
##퉜
##깬
##쾰
##곅
##뜷
##۶
##삵
##긇
##옜
##쏩
##쉅
##쥤
##̌
##뛴
##큉
##걘
##≥
##쏵
##셑
##텼
##렜
##깼
##섐
##왝
##툇
##팼
##ω
##˂
##퀭
##ྪ
##튈
##휩
##좬
##̄
##웂
##니다
으로
에서
아요
네요
어요
습니다
는데
배송
합니다
한다
지만
##00
너무
구매
보다
만족
사용
까지
가격
라고
에게
해서
생각
면서
제품
다고
^^
다는
20
지난
빠르
사이
사람
아니
입니다
어서
아이
된다
대한
해요
때문
감사
라는
위해
부터
많이
다른
우리
한국
아서
저렴
10
그러
아주
지역
사이즈
주문
201
하나
ㅎㅎ
19
문제
사업
으면
마음
해야
통해
괜찮
정도
상품
이나
##뻐요
시간
기업
시장
그리
대해
이상
200
자신
필요
함께
가능
정부
경우
이번
정말
관계
대표
경기
편하
디자
구입
사회
미국
따라
그런
아직
디자인
만들
서울
다가
처럼
세계
시작
가장
그래
조금
빠른
들어
모두
대비
경제
교육
다시
밝혔
세요
도록
처음
중국
가지
##지만
위원
인데
그러나
최고
##통령
지원
선물
없이
대통령
그리고
프로
는다
하지만
이후
사실
다음
위한
관련
구요
연구
ㅋㅋ
효과
이쁘
보이
깔끔
일본
12
투자
문화
추천
느낌
기대
지난해
지금
맛있
11
특히
계획
의원
상황
이런
부분
완전
바로
개발
국내
포장
역시
##어요
결과
려고
최근
현재
올해
거나
이용
색상
후보
30
계속
기술
그렇
설치
국가
이날
진행
대학
##대로
더라
설명
정치
예쁘
다양
에요
조사
사진
으며
국민
15
여기
모든
항상
활동
그냥
여러
같이
예정
100
##스트
새로
이뻐요
산업
운동
동안
상태
전문
학교
회사
과정
만큼
는지
기록
##비스
스럽
관계자
대상
판매
엄청
관리
예뻐요
라며
금융
모르
선수
보여
매우
도시
진짜
영화
평가
정책
이유
삼성
피부
민주
결정
운영
업체
서비스
떨어
중요
그것
가성
이미
##어나
튼튼
모습
나타
가성비
정보
구성
##운데
어떤
감독
학생
자리
또한
18
여성
내용
##시아
##부터
당시
한다는
방송
##레이
오래
북한
##랜드
소리
시키
##구요
이어
생활
따르
규모
부드
어야
이야
가운데
16
주장
현대
직접
확인
추진
스타
조아
전체
나오
경찰
스러
친구
이제
못하
인터
어려
새로운
참여
환경
##이스
편해
보내
국제
ㅠㅠ
돌아
##000
다면
아무
##주의
기존
행사
아닌
##인다
나라
이야기
일반
하루
적당
기능
경쟁
고민
회장
사랑
13
기관
##이트
추가
알려
해도
생산
물론
발표
가볍
준비
무엇
기간
시민
선택
성장
관심
발전
그래도
제공
지방
발생
자기
선거
개인
이것
여름
아들
기준
인지
대회
25
중심
##머니
국회
14
의미
역사
예요
17
은데
빨라
마다
가족
활용
사건
마련
수준
자동
##께요
인간
아기
실제
방법
상대
센터
일부
고객
은행
위원회
냄새
교수
으니
여자
이렇
부산
더욱
분석
포함
걱정
성공
듭니다
대구
품질
자주
자연
불편
요구
50
최대
그래서
프로그
건강
증가
소비
더니
일단
약간
전국
변화
개월
시대
적극
빨리
노동
어느
부담
이러
지적
프로그램
시설
##으며
따뜻
다만
시즌
자체
그녀
한편
대로
그런데
어떻
경영
작품
셔서
공동
공간
24
달러
구조
오후
이름
안전
단체
강조
전망
조선
입장
주민
확대
예상
이렇게
자유
공개
얼굴
물건
못했
방식
건설
##부분
남자
영향
사고
밖에
머리
지나
회의
열린
지속
올라
분야
브랜드
오늘
고급
그룹
강화
노력
근데
피해
해외
시원
##게요
유지
엄마
도움
나온
촉촉
라면
아파
처리
특별
비해
들어가
##리아
결국
역할
착용
##진다
얼마
바람
##거리
이해
이랑
한데
한다고
정상
나가
인사
개선
23
기사
로서
보인다
니까
기본
크기
어떻게
샀어요
##마트
어린
직원
가치
책임
편해요
병원
친절
주택
의사
확실
제도
거의
겨울
시켜
부드럽
##버지
위해서
40
외국
차이
조직
자동차
존재
대부분
전략
우선
비롯
드러
다니
꾸준
기자
21
전화
시스
그대로
여행
해결
인천
힘들
인터넷
미래
현장
소재
관광
199
중앙
내년
먼저
라서
을까
거래
방문
기분
수사
##다는
작업
##워서
찾아
공사
사무
살짝
화장
경험
22
조립
대해서
안정
위기
현실
검찰
비교
보험
재질
위원장
상승
과학
했다
주요
적용
어렵
거리
인가
배우
시스템
광주
부모
남편
차지
기회
행정
이전
높이
목표
사장
더라구요
단계
부족
장관
도착
분위
드라
실시
게임
##너지
계약
주변
청소
보호
기다
##라인
표현
제작
로부터
정신
내려
능력
대신
못한
연결
모델
##인트
집중
예산
바르
꾸준히
나왔
달라
분위기
음악
라도
세상
인정
해당
후기
아파트
신발
각각
만나
고려
이루
업무
롯데
이거
##동안
상당
반대
단지
또는
요즘
아버지
넉넉
27
으려
민주당
협력
지도
어도
##없이
제일
조성
##리스
제대로
확보
선정
판단
리그
공연
26
전문가
글로
##자리
치료
마을
평균
##으나
##어난
조정
훨씬
와서
으나
유럽
서로
가구
수익
예술
아야
##지막
통합
공급
이사
려는
ㅋㅋㅋ
달리
보고
앞서
전자
##다고
스마트
##전자
언론
다르
이뤄
보도
글로벌
##소리
LG
충분
발견
움직
비용
성능
의견
동시
수출
그렇게
보였
전혀
28
비판
매출
시켰
오전
가까
방안
누리
포인트
마지막
지난달
우려
아쉽
반면
화면
##해서
카드
혐의
전쟁
아쉬
따라서
공격
인식
##이지
인기
자금
어디
잘못
유통
어울
위치
원래
색깔
어머니
소비자
SK
는가
##져서
통신
누구
대책
##디어
에선
비슷
##스로
매일
아용
지지
아침
신청
과거
##이어
자료
출신
복지
꼼꼼
작가
영국
전했
나와
행위
별로
한테
모양
됩니다
차례
길이
신경
건조
ㅎㅎㅎ
봐야
중소
참석
음식
차량
영업
바라
유명
스스로
환자
에너지
도입
으로써
허리
전시
제기
오히
얘기
따른
정확
위험
오히려
편안
의료
이익
스타일
했어요
업계
느냐
행동
전기
인상
블랙
논의
언제
정리
강추
제시
행복
체험
공장
더라도
교통
지구
TV
선보
시행
으로서
프랑
승리
핵심
만든
전통
신고
순간
##기업
시기
광고
형태
귀여
평소
그림
이르
60
최초
고요
마감
선발
일정
무난
박스
##마자
공부
우승
독일
##나라
보통
##린다
청와
결혼
청와대
방향
교환
자마자
없다
대출
##스크
현상
29
아래
종합
개최
주인
대형
올림
소속
연기
크림
속도
부문
##가지
##운드
장기
나타났
참가
무대
이동
##어지
스포
합의
##레스
출시
재정
공식
편리
##른다
혁신
ㅜㅜ
진출
수요
드렸
어린이
주식
유치
목적
소개
아시아
장애
각종
의식
분기
대응
내부
##려서
나무
기획
휴대
다리
검사
번창
여전
올림픽
생명
주목
수도
조치
대전
가정
금리
프랑스
협의
조절
훈련
도로
목소리
감소
가벼
요청
떨어지
제주
빨라요
##이터
기억
실제로
우수
문학
스포츠
##BS
부동
가진
출연
반응
수입
시절
바이
개혁
혼자
고자
프리
공공
확실히
드라마
똑같
질문
나이
알려졌
희망
담당
##반기
논란
펀드
분명
할인
의해
198
등장
사라
축구
규정
인해
70
분양
시험
가방
쇼핑
좋아
검토
신문
제조
##무원
가슴
재판
성과
느껴
사례
자세
대화
##우스
남성
스러운
매장
소득
##라이
전달
##너무
##어들
커서
구축
본부
전환
간편
빨랐
설립
얼마나
컬러
##아들
부드러
##심히
관한
부동산
느끼
지식
반영
아프
마치
시청
고용
작년
깨끗
바닥
조건
기반
건데
2015
2000
스러워
본격
올리
자산
이곳
바지
인도
##수록
세대
불과
경남
자원
넘어
세탁
으로부터
차원
정당
여부
지급
증권
너무너무
최종
외국인
가입
여전히
가져
2012
사은
등록
전하
불안
사은품
버리
##이크
국정
노래
충전
건물
강력
이끌
무게
체계
소음
인물
세트
##한다
단순
규제
만드
어려운
오른
당신
노조
러시아
연합
귀엽
대선
세기
2014
##아가
2010
자극
경기도
의회
연속
항공
개정
택배
라인
교사
구체
브라
그만
##이션
제외
방침
소설
이미지
월드
사상
회복
80
미리
안타
체제
자본
지정
영상
원인
일자리
지켜
이건
그때
기념
울산
습니
평화
청년
비싸
공정
으면서
##은행
그동안
빨라서
31
아름
공원
활성
500
케이스
##요일
열심히
라이
했으며
기초
코스
하락
##러스
네여
삼성전자
대체
주로
투표
부정
간단
의자
중소기업
따로
연구원
##립니다
주제
준다
##무리
2013
협상
실패
##민국
유리
##학교
매번
열리
식품
성적
##려요
주도
시도
보유
인생
외교
지하
할게요
최소
2011
나서
내놓
려면
##거운
개념
촬영
확정
학년
지요
아도
초등
선생
야구
바꾸
골프
민간
생기
덧붙
대한민국
회담
온라인
파악
오르
진정
제한
협회
인구
민족
비율
올랐
실적
마무리
시킨
총리
전해
커버
쿠션
교체
보장
제안
거쳐
임금
주일
금액
려구요
일어나
맞춰
형성
색감
공무원
박근
스트
금방
##합니다
완성
어용
흔들
아내
마찬
수행
마찬가지
홍보
정권
보수
남북
재미
대중
공항
그런지
고정
의혹
받아들
2009
예전
상담
2008
##BC
법원
여유
한다면
늘어나
수상
박근혜
거부
체육
영어
귀여워
갈등
경쟁력
호텔
통한
알아
사이트
회원
나타나
감정
착용감
근로
변호
수술
2016
경북
1000
저녁
##이블
나온다
해석
35
약속
동일
성분
축제
하이
걸렸
##디오
향후
학습
##스터
##화점
가량
마시
독립
매트
선언
##아지
전반
절차
빠져
앞두
취업
창업
가을
중간
용량
통일
구속
둘러
당국
수원
절대
통화
지사
나섰
더불
할께요
사태
덕분
##스코
쓸께요
중단
듯이
##리티
다행
불법
특성
건축
으려고
스마트폰
인근
##뻐서
바탕
원장
불구
인력
교회
##자기
떠나
설계
집단
군사
사전
저희
사항
무역
##므로
심사
덧붙였
##다가
근무
도전
신뢰
##어났
화이트
하늘
사망
마리
##드시
당연
노인
현지
반드시
신랑
비싼
특징
토론
동물
##프트
물질
작용
통과
조차
미술
커피
원단
비중
핑크
언급
##이드
언어
나머
계기
드리
효율
두께
특정
인수
전용
권력
조합
##럼프
제출
프로젝
영역
재단
법인
살펴
시킬
봉사
심리
사무실
직장
일으
그랬
빠지
여론
시리
수납
작동
외부
소식
300
그린
제거
나쁘
청소년
백화점
발라
변경
노트
발언
혜택
충분히
베이
##어진
어깨
마케
전력
졸업
아마
수업
차별
했으나
197
연금
90
나름
했었
##학생
강원
강한
대박
참고
방지
지배
5000
나머지
아름다
매년
##페인
예쁜
김정
계열
프로젝트
세력
달성
포기
벌써
자녀
트럼프
측면
혹은
내리
마케팅
필수
부르
올려
버스
컴퓨
펼쳐
기다리
종교
자치
최저
창조
원칙
검색
완벽
출발
부인
유일
화학
주가
된다는
무슨
종류
요소
지수
과제
짱짱
고등
침대
전남
바뀌
게요
뉴스
보관
정의
오랜
불리
지인
거기
타이
복합
접근
나선
배치
투입
심각
불러
##릅니다
##피스
초기
무료
성격
범죄
가르
돌아가
2007
주말
KT
신규
##리어
해양
예방
바다
컴퓨터
장점
일상
나누
신용
동생
여야
창출
관객
다며
혁명
장소
서울시
어려움
##니스
부상
작성
부부
철학
지키
수석
이론
##텐츠
챙겨
바꿔
등급
흡수
세월
일까
신기
할지
공유
연장
여서
무리
주의
매력
다소
소유
강남
소송
인터뷰
모자
나중
근거
시리즈
금지
임대
연락
리뷰
##가락
먼지
태도
55
나갈
짜리
완전히
출전
심플
고장
걸리
재산
##서관
편의
##라스
의지
어울리
건지
채용
버렸
고양
고통
32
데이터
갑자기
시각
변호사
##벤트
죽음
자꾸
할까
본다
체결
강하
당선
이벤트
부탁
45
유용
투자자
노동자
그리스
요리
##의원
드립니다
소통
아빠
플레이
가득
이란
마트
이달
교과
##바일
대변
살아
콘텐츠
36
부품
모바일
분리
양말
푹신
애기
자는
므로
굉장
월드컵
이틀
##나무
##걸이
반품
훌륭
께서
전년
장면
을지
퀄리티
연습
대사
메시
해졌
국방
들여
##으면
밝혀
국토
의장
달려
이른
실천
수분
확산
보여요
전형
사과
원내
2017
##란다
문재
기한
줄이
입주
연출
보단
레이
걸로
육성
로운
날씨
패션
시계
무겁
네이
인한
자전
향상
배경
뿌리
동아
##세요
부지
자격
수용
걸쳐
기계
미디어
샘플
주인공
감안
놀라
형식
한나라
한나라당
##20
진단
투명
##터리
##려고
설정
##리카
이어지
투수
바라보
홈런
리더
기구
순위
학부
집행
미치
교육청
보고서
야당
굉장히
연계
2018
연구소
이쁜
알리
공기
인권
한화
요인
화장품
완화
하나님
다녀
예비
두꺼
196
##페이지
점점
하고
상징
홈페이지
는데요
전부
반복
상상
##어날
가수
자랑
시점
네트
식사
기여
뭔가
특수
실물
조용
독자
긍정
보조
기울
실장
##환경
종목
자전거
보건
눈물
위반
##메라
허용
종이
이때
트러
연간
감동
상당히
은은
보냈
##일리
뉴욕
표시
그려
절반
흘러
가리
선진
붙이
장난
불가
불량
오픈
법률
충격
철저
균형
벗어나
폭력
보상
말씀
크리스
이게
메이
흐름
적절
먹이
33
점검
동의
##라도
단점
빠릅니다
직업
##이프
올렸
길래
힘든
국립
고속
멤버
##니아
트러블
습니당
부여
##아이
쁩니다
봐요
텔레
개봉
본인
이하
이탈
된다고
모아
둘째
간식
가까운
거든
학원
향해
정비
수정
봅니다
정규
생태
확장
한계
가까이
발림
돌려
후회
아무리
아가
코리아
스토
만난
합리
태양
안보
##반도
편합니다
요금
편한
KB
판결
스티
##스타
전날
메시지
사정
운용
실현
후반
대용
조카
잠시
별도
장비
다이
헌법
워낙
MBC
아동
우주
실망
위협
해소
총선
카메라
철도
활약
그만큼
나눠
블루
공약
움직이
편해서
반발
실험
##네요
회견
##워크
만약
누가
너무나
##아요
지상
인증
안내
수학
극복
디지
대우
프리미
신축
나요
국회의원
는다는
모집
가죽
마저
생겨
2006
자율
맛나
##간다
향기
애플
캐릭
올라가
국무
농업
당장
KBS
그럼
타자
세일
문자
수단
들어오
##고기
운전
관광객
피해자
한반도
장치
무기
지시
새롭
상호
연대
부장
비상
캐릭터
이명
미니
착한
답변
을께요
벌이
구분
공단
의심
완료
논리
가끔
긴장
수수
면적
베트
치수
출마
갖추
##회장
현대차
승부
고소
디지털
미사
언제나
집안
총장
움직임
발볼
34
매각
채권
##끄러
##대표
취소
지분
득점
웃음
구역
점수
추정
화려
실수
보습
마침
슈퍼
친환경
동기
소프트
표정
놀랐
시선
실내
귀찮
데뷔
편지
##50
영양
수많
느라
정기
최선
가로
마이
대학교
심하
무릎
출산
권리
##일보
38
부대
##er
책상
기름
이걸
수고
카페
3000
토지
눈길
투어
지자
밝히
응답
수비
맞추
인하
##다면
소장
의한
##다보
두산
창원
추구
의도
교류
청구
개국
과장
안심
마르
적당히
궁금
들어갔
전면
범위
개별
##쁩니다
의무
직후
아름다운
기부
거듭
진보
역량
결코
동료
정품
할머니
네트워크
텐데
박사
물량
검정
강의
키로
거품
배출
##고요
부처
가스
실력
오리
초반
키우
적응
국장
오프
상관
비난
도와
베트남
연주
거든요
단위
통제
시인
끌어
생긴
제재
##산물
떠올
구단
원자
어두
주체
흰색
모니
비행
품평
씁니다
밴드
기에
고개
불만
부회장
증거
##공사
충남
기기
라운드
채널
사업자
아닐
즐기
구간
노트북
결론
트리
살펴보
cm
근로자
모임
실용
노선
나올
경향
법안
공천
조심
세금
떨어져
##바지
사실상
다운
지자체
무척
선고
전투
대변인
캠프
으니까
입학
협약
상처
예측
구멍
동원
질환
줘야
폐지
줄어들
혹시
희생
차단
원내대표
주차
아쉬운
압박
용기
그럴
줘서
관람
신세
스피
어른
선호
주년
번호
아닌가
결제
예쁩니다
취임
역대
게다가
당하
무선
놀이
주위
내세
000
원전
모니터
실질
거실
기소
문재인
상반기
강아지
지점
모여
처분
써요
어제
강제
챔피
공모
니당
아이템
내렸
##군요
소화
정체
유가
져서
물리
전개
석유
스킨
김영
명예
촉구
애용
더라고요
대답
공감
머물
화장실
IT
어쩔
부진
알아보
개편
결합
##or
단독
오버
비밀
생겼
답니다
통상
고무
맞춤
뛰어
며칠
니다
발굴
66
여러분
몰랐
조기
아울
재료
출범
어쩌
하반기
기장
업종
탄생
붙여
보증
솔직
통해서
##프라
2005
돼야
단일
데일리
150
##난다
진입
비즈
발행
고맙
을게요
부서
민감
시위
전원
손해
핸드
쿠폰
갖춘
이명박
37
배터리
발목
부채
일제
계산
딱딱
저축
위안
고교
단단
유사
근대
##메달
##니까
아예
##란드
그게
##다른
대리
매체
대법
오염
##는데
개막
400
식당
접수
고기
다닐
임명
##영상
공동체
취지
근본
진실
클래
부위
냉장
당초
부실
학부모
무시
나아가
명령
바른
대하
##준다
로션
세우
65
후원
타임
우유
개입
촉감
km
발휘
##잡이
조명
투쟁
모른다
처벌
주거
끝나
수립
포스코
두려
온도
클럽
어여
고위
복잡
이뤄지
경주
거치
착하
밝힌
미세
;;
서울대
##덩이
두껍
조작
펼치
이기
치열
새벽
옮겨
검증
수영
폭발
써서
민주주의
지도자
대안
##바닥
정해
예뻐서
악화
거주
그곳
동영상
유기
임시
유도
과연
고향
아이디어
경계
##리트
페이스
자국
커요
에어
첫째
다섯
반도
75
첨단
전이
곳곳
케이블
분류
풍부
부자
kg
세워
미사일
승인
느낄
한국인
돌파
깊이
내내
동네
최대한
인테
익숙
인재
평생
한지
못해
떨어진
단어
복귀
지휘
통계
도서관
그저
프리미엄
떨어졌
마스크
##조건
돌리
정착
스테
기아
파크
손실
던지
앨범
해진
인공
결승
건립
대기
판매자
한번
고생
패드
이외
인테리어
진다
이승
개방
싸움
상장
감각
측정
즐길
194
##IA
소녀
팀장
경선
보안
든지
##바로
바란다
다수
써야
이웃
이닝
형사
스트레스
주력
출판
연령
포항
고등학교
뛰어난
성인
탄탄
이성
천만
추세
전북
고양이
##사자
48
거대
추석
##리오
이래
관점
유엔
화제
동반
증상
일찍
가졌
연말
다이어
인프라
##어져
오랫
보낸
대단
타입
개성
달하
대북
음질
견고
신속
박물
꺼내
양성
발사
신설
깜짝
이탈리아
허가
봐서
##직원
설비
##저기
누군
정원
여기저기
아르
물러
시티
소방
심지
이뻐
남녀
무조건
##담회
벗겨
미군
화재
생일
##공업
##말로
도톰
축소
기독
##어졌
이른바
##마스
더군요
본사
점차
드라이
가동
무지
소문
활발
에게서
부드러워
##플레이
현금
유니
테스트
나와서
늘어난
세종
39
당황
늘리
이재
44
학자
##총리
2004
배달
초청
수능
뮤지
인용
흥미
프레
바이오
아무런
김치
저자
임원
가려
노출
매달
위주
인치
보일
통하
챔피언
계열사
생존
당했
구하
여건
제목
떠오
선두
##연히
상하
파괴
계층
박물관
상자
인정받
##레이드
시내
주관
파리
비리
##30
기타
재미있
증시
경고
아울러
간담회
42
커지
만났
##버스
집회
##회사
편성
레드
겁니다
유형
스크
신축성
연극
합격
자아
도덕
표준
다루
여당
광역
신한
단기
비전
공화
식탁
독특
에겐
파트
뚜껑
딸아이
싸이
권한
녹색
나갔
##비아
오랫동안
광장
향도
이스
운행
대학생
##로스
든다
제약
신선
멀리
##란히
열정
당연히
선박
서민
비즈니스
공직
해운
유산
세련
원하
마니
데이
극장
프린
골드
커뮤
걸어
협의회
호주
##워요
플러스
커뮤니
오늘날
수시
엔진
지닌
예고
위하
동부
전공
##in
언니
조언
부과
입히
무상
점유
호흡
바퀴
숫자
질서
예수
아쉬움
기독교
꼼꼼히
대만
순환
상업
품절
줄어
재무
수십
신체
택시
적합
타격
사유
매수
장식
사료
통증
심지어
알려진
마이크
당일
일자
지주
테러
설득
혼란
누군가
필름
보완
반도체
지워
가게
발달
라면서
물가
관측
끝내
가벼워서
잇따
용도
개정안
41
초대
윤리
지연
뒤집
고서
살리
빠름
침체
이자
##세대
의하
장착
들려
전세
서구
비타
세제
##on
는다고
주행
상위
대용량
중학교
냉장고
매매
정성
오바
집계
거짓
문의
사기
취재
분명히
으므로
느꼈
연예
원리
사라지
알려져
호소
화사
비닐
경기장
무거
지하철
어떠
지내
실업
합병
거론
스페인
에스
전해졌
의문
경력
사퇴
총회
43
보여서
담배
예약
저지
인류
습관
돼서
끊임
강원도
신세계
설명서
법정
##서트
답답
드러내
실리
디스
일대
##케이션
군대
던데
이뻐서
사법
작전
시청자
제국
파우
학과
2002
성향
46
##으니
CE
대결
선보이
조각
자라
남기
공포
시트
한쪽
95
##다니
KIA
##웨어
쫀쫀
한참
반짝
냐는
단순히
채택
매입
##해요
특허
모으
양국
자면
##친다
자고
비록
본질
인원
휴가
무려
파워
순수
그레이
건너
색도
임신
부드러운
거두
테이블
##카드
52
그날
걸린
베개
도심
천연
노무
공산
##니어
못할
신호
기원
대가
평창
85
으네
버린
청장
변동
드러나
오바마
협정
고리
자식
소형
주주
교과서
이내
방어
##르트
명확
적자
포럼
베이지
흐르
직전
왼쪽
어찌
드러났
회계
피아
취하
스위
진술
##려야
환율
뜨거운
선임
서류
쓰레
의존
브리
토대
홍콩
미소
아우
제정
로써
신화
파견
47
로봇
잠재
##웨이
손가락
전제
120
플랫
그러므로
플라스
찾아가
구두
비타민
교육감
대폭
##닙니다
농협
49
대구시
공통
다이어트
쓰레기
건전
들어간
노사
수수료
응원
무거운
버튼
실행
연휴
##TA
소중
농구
엄청난
내요
용품
신분
중공업
벤처
진주
브라질
4000
가벼운
절감
PC
SBS
키워
부들
감시
지향
피하
여수
##나마
김성
문제점
선배
걸음
이행
판사
##조합
##이너
지니
이불
오프라인
칭찬
콘서트
아라
가루
으시
다행히
분노
소매
긴급
사내
배제
현안
식물
라디오
운명
급하
수주
당한
몰라
열린다
소년
##로나
오일
케이
국내외
유출
접촉
면접
로마
정지
플라스틱
2003
명품
##보드
올린
받아들이
외환
캠핑
정확히
진료
시사
들어서
##러리
아웃
되게
이슈
물품
장난감
그치
테크
거울
그래요
600
대처
##러지
안쪽
84
선사
##뜨리
기지
##어도
갤럭
기도
재생
##로운
좋아하
##라고
성남
폐기
갤럭시
엉덩이
지표
바꿨
살아가
선명
빠졌
무너
가계
실점
시범
관찰
##an
질병
고도
##카오
연수
천안
51
즐거
느리
무한
아트
체육관
빠진
부당
상임
겨우
증명
195
주방
수리
메모
브라운
남부
초점
바디
규칙
오른쪽
실무
주기
학기
자살
만남
조례
심한
CJ
순하
품목
그건
런던
임직원
호남
체크
드려요
사원
외출
임기
연맹
방해
이정
대법원
사안
저항
충돌
스토리
섬유
고르
##NS
농민
편집
스카
주자
헤드
그쳤
경비
##나다
250
성명
심장
휴대폰
하우스
서랍
##다란
돌아오
지출
획득
심판
강사
인민
훼손
유행
일종
배려
미만
수치
각자
사물
호기
테마
내일
트렌
출입
농가
벌어지
##래도
단속
청약
고령
경찰서
살인
손잡이
캠페인
##이즈
법무
유로
주최
흔히
59
날짜
독서
농촌
매치
이어졌
나눔
감염
1990
코치
끝난
근처
계절
열렸
진하
금메달
주름
##티브
##러진
나타내
장사
내린
융합
종종
생물
개설
##교육
양식
곧바로
취득
부착
지성
파업
##힌다
좌우
두드
이중
기다렸
물티
사령
입지
창의
##어버
##랍니다
트위
##아버지
##저것
탄력
형제
##건설
맥주
폭신
이것저것
물티슈
감성
용지
진작
심의
조화
남겨
논문
사로
2020
스케
현행
각질
어려워
옛날
부사
신라
시중
지대
뮤지컬
지퍼
특유
지위
에서부터
상대방
나쁜
터치
예민
박정
베스트
쉬운
네이버
커플
지나치
하얀
약한
불가피
대립
마주
54
맞이
##로그
대장
56
취약
메이저
페이스북
느낀
몰려
보급
##단지
##스티
##에도
클래식
메르
정식
동력
민원
프라
김태
학문
유아
##가스
국방부
역전
간부
와인
##학자
선출
##부들
타이어
과목
변하
발색
추억
파이
상인
캐나다
원피스
된다면
근육
크리스마스
부들부들
사세요
화질
고발
찾아보
입구
기모
종료
99
물류
스프
지명
해명
저장
입술
담겨
협조
NC
ㅡㅡ
통보
아프리카
평등
즉시
침해
그나마
구글
담보
안팎
밀려
구상
줄여
주간
구청
##그룹
밀리
요건
불교
빨래
마사
보존
굳이
비정
패턴
손목
망설
견해
출근
스파
객관
..
급증
타이트
예뻐
##하면
##디션
블록
연방
##머리
세포
##마디
국산
당부
김종
영향력
##끄럽
지진
원정
선도
영입
슬림
##제품
##도로
대량
유발
240
단장
64
6000
메뉴
GS
고문
CEO
톡톡
텔레콤
77
재판부
동양
해방
복원
사로잡
태어나
풍경
마우스
변신
박람
청문
약하
이마트
##은이
돼지
##으로
급여
53
복용
차관
선진국
담긴
신중
노무현
##인지
걸려
연봉
이념
제주도
였으며
손상
리모
기금
몰아
주머니
세웠
영원
느렸
쓰이
교실
상무
벨트
FTA
배당
컨설
목숨
##우드
조달
어두운
코트
평범
국정원
합류
징역
못한다
도쿄
모래
대강
찬성
가난
##들이
져요
솔직히
그럭
기대감
정치인
##la
비서
방수
야권
하드
가상
무사
패배
초과
없애
##다리
202
시공
트위터
결의
선보였
영화제
여의
확신
재고
대행
스런
tv
자문
소수
지도부
발송
주석
스티커
구현
연설
구제
오피스
내게
믿음
마당
중대
입증
다름
8000
쓸게요
그럼에도
번지
여인
휴식
에다
정서
번역
황제
##와서
두꺼운
의학
니깐
커다란
누르
쇼핑몰
##아리
아시
##권자
손님
한정
진화
##철수
최악
총괄
직무
용역
매출액
유치원
문서
더블
일으키
계좌
SNS
##저럭
800
케어
입법
어린이집
마친
정하
급격
58
일어난
용인
나설
1980
끊임없이
득템
만날
고대
재건
대체로
수집
퇴직
철강
비정규
##en
연패
공헌
연관
스키
57
왜냐
넥센
입찰
은지
지켜보
바람직
이젠
카카오
예능
모았
김정은
스님
상가
비정규직
공학
디스플레이
폐쇄
용어
사드
강연
마크
건성
부각
섭취
그럭저럭
뚜렷
영장
유학
##키지
개통
##항공
촉진
서양
이걸로
FC
분쟁
잠깐
최우
무서
두툼
는다면
장학
그립
이루어지
가공
수백
사단
청사
욕망
구성원
mm
##져요
둘러싼
해용
##리스트
이용자
면세
음료
아무래도
집권
패키지
바랍니다
기상
동남
전주
아쉬워
##셔츠
실리콘
강점
쟁여
탁월
참가자
끼리
기쁨
코드
공주
항목
귀걸이
일방
관세
공인
군수
양쪽
명절
갈수록
체포
도구
대학원
봐도
모색
충실
그거
조항
보편
가시
안경
기아차
##ED
일치
가벼워
노후
교육부
중반
김해
##리드
박지
엑스
72
지속력
모터
구도
고전
재개
문장
마침내
한층
엔터
진심
나사
연승
압력
과도
한마디
대거
리더십
##CT
경찰청
들어갈
기후
창작
앞둔
무렵
흔적
회전
입시
##;;
전후
유연
격차
산하
벌였
##구려
일시
빨간
각국
부작
으신
동작
은퇴
로드
박람회
려고요
랜드
##ar
##번에
돌아왔
스탠
시달
##스토
높여
안철수
상생
냐고
스판
양산
라요
7000
해군
점포
아픈
조리
충청
향한
유력
샴푸
수지
그리스도
싱글
과일
고유
포트
화성
어려울
상승세
후배
속옷
흔들리
구미
스러웠
마쳤
##센트
넘치
해질
버력
왜냐하면
연료
베이징
엘리
냉동
결심
이스라
보들
이슬
즐겨
발전소
강도
공시
파트너
전지
앞세
피로
가깝
유대
선전
서명
68
180
적어도
2001
갈아
뱅크
여겨
신인
금속
계급
포스트
일어났
정수
채워
소요
황금
음성
중동
진영
극단
##둥이
향수
치즈
최소한
배상
동맹
소외
##산업
지리
조만
되돌
매주
예금
등판
신생
드디어
공략
내수
##증권
조합원
드러냈
변수
이민
##총장
부딪
즉각
현황
탄핵
징계
충족
폭행
유해
그렇지만
63
묘사
널리
경영자
치르
확충
문화재
북부
맞서
구나
비치
소프트웨어
군인
드릴
마켓
재능
비하
총알
들리
이스라엘
끈적
신앙
광주시
점심
토너
##서리
압도
워싱
위대
타점
넘어가
700
진리
간다
논쟁
부활
보험료
존중
##낸다
최적
유동
문명
양상
##회의
장르
만화
신입
전시회
탑재
전당
아닐까
동해
중구
평양
아무것
##집니다
수면
누워
쏟아
인문
거뒀
풍성
비디오
##온다
##보리
조만간
충북
이리
팬티
아이스
될지
깨달
##여금
67
목사
당사자
풀이
줄어든
종일
허위
적립
가라
주차장
이사장
파손
열차
PD
표면
들어왔
체력
가질
##생활
보여준다
빼앗
암튼
납니다
상실
쇼파
수령
플라
대상자
권위
뛰어나
출장
노란
아닙니다
서부
가입자
어려웠
높였
인연
다네요
티셔츠
세부
진흥
실정
취급
들이
진학
191
이라
경상
일각
소감
고마
193
개헌
##크스
판정
유입
계단
한가
발리
어떨
합동
타당
시상
##거래
김대
잘라
특검
끌어올
앞장
88
재벌
늘어날
내려가
중도
해고
대목
흥행
옮기
최신
재배
매트리스
신학
시정
칫솔
더러
정작
관절
160
자본주의
74
특이
메이크
##포르
여지
수급
62
한글
젊은이
막상
펼쳤
등산
리라
61
욕구
최상
수록
상당수
원주
명단
든든
제조업
##구나
##al
축하
식민
미술관
문구
컨설팅
김현
도중
재밌
청문회
부사장
트렌드
그간
##봐야
드림
이른다
승진
한때
이만
예선
골라
무용
기호
그런가
##es
화물
와이
190
##시코
돋보
갖춰
자신감
##져야
토론회
때로
소위
유권자
아닌데
버전
필리
군요
돼요
몇몇
##수수
올릴
비서관
다스
상공
눈치
##라리
미끄러
아시안
할아버지
친정
##먼지
십니다
떠오르
옵션
상세
아여
밀착
경매
불렀
이어질
의뢰
핸드폰
한두
가격대
##퍼스
진한
키보드
소스
탈출
파티
사라졌
시급
비행기
김재
김동
대요
면세점
감싸
올라오
군데
남겼
부러
멈추
당분
행보
##사고
##르크
##문화
성비
멀티
자세히
과감
괜찬
무늬
원자력
싱가
싱가포르
욕심
산책
세운
일관
가이드
오가
참사
해상
타워
##스탄
신임
얼른
가요
심해
엄격
소파
국당
인형
영남
기저
명성
매니
받아들여
학회
산업단지
금호
##어질
사업비
그릇
회수
AI
리얼
민중
상환
착수
사이버
아끼
녀석
취향
선보인다
##CC
댓글
올바
도발
##하우
##투스
백성
저번
이혼
거친
운전자
보람
아까
나타난
전파
부작용
교정
복수
입맛
누적
어울려요
해제
지혜
안방
판매량
영혼
붕괴
워싱턴
철저히
토요일
애매
##천시
2019
실시간
청소기
차기
##의자
76
즐겁
우연히
##너스
오직
야외
감기
쉬워요
코스피
초래
레이스
보육
탄소
행진
기조
동참
완공
티비
##트리
재난
특화
메이크업
무관
신부
추적
##입니다
가전
심화
##지사
극대
아카
73
이주
파일
빌려
지지율
행정부
유모
##비전
##디아
간접
##스턴
늘어났
장악
증권사
그램
방사
기온
미안
규명
##at
설문
##꺼번에
적발
한꺼번에
##그러
중점
골목
바깥
왜곡
일원
장군
개척
달한다
위상
보드
됐으며
저소
반박
미세먼지
78
태국
소지
각오
거래소
지갑
회관
산뜻
거슬
위생
제자
리조
영웅
강요
준공
만일
뮤직
이끄
오해
질감
71
해진다
납품
감상
진로
이뤄졌
브로
환상
시킨다
박수
채우
흘리
스크린
건가
다를
막대
공제
스웨
애정
오토
코로나
##보들
홀로
##어진다
진지
69
하위
##풍기
촛불
##네시아
붙잡
재정부
초보
##핵화
필터
비핵화
멕시코
반성
왔다
살까
정밀
도민
지법
보들보들
달했
거절
넘기
앞선
당분간
마땅
작곡
노하우
스타트
귀국
전선
클라
학술
페이
고백
시골
명칭
비추
라이트
비대
최다
소련
떠났
192
아마도
천천
우울
##받침
태평
중독
여의도
클린
통치
구석
환영
110
애니
아쉬웠
호수
230
비비
코너
가르치
천천히
기운
데리
##루션
리조트
골프장
이룬
페이지
나란히
그러면
발매
총재
처지
130
이슬람
연상
이종
넘겨
워크
대외
1970
세탁기
챙기
관료
다녔
##그레이드
멋진
태어난
업그레이드
타이틀
푸른
##ed
터지
##시장
만족도
트레이
과세
베이스
채무
중고
입힐
지냈
연평
##스티벌
페스티벌
번거
원유
증정
##니당
머릿
진상
바위
보낼
센스
유전자
인도네시아
##나이
대대
전담
동구
도달
동북
9000
오랜만
돌입
캠퍼스
아저
중계
이어폰
청정
태양광
잠실
습니까
바꿀
병사
모은
어르
게시
대해선
##단체
두루
##oo
죽이
아저씨
보조금
무장
거짓말
기술력
부산시
##스키
달아
1998
싸우
빌딩
내면
사우
갈라
그걸
미칠
한동안
연예인
헤어
아베
살려
신어
의류
##여서
될까
세미
힘입
셋째
탈락
대개
횟수
대륙
억제
##다수
도망
출석
소환
방학
남쪽
보인
북미
##관리
잇따라
상금
만만
아메
겨냥
외면
붙였
동계
영광
구장
범행
잃어버
급식
써도
대금
관념
특별히
일부러
접착
위축
콜라
창문
구원
농산물
평택
플랜
지침
중견
##아내
##오프
눌러
동화
1999
짜증
못지
날아
보전
치약
제고
해체
김상
##PG
꿈꾸
98
1997
GM
예외
스페
모드
##스카
KBO
비로
뻑뻑
전역
바이러스
낮추
자발
으론
편할
얼음
##어놓
격려
임무
플래
노리
235
##레인
구별
강세
면역
수시로
주부
##크림
공고
네이비
생길
이쁨
커뮤니케이션
지검
목욕
for
에어컨
소셜
어르신
주류
증대
입사
연인
기저귀
원가
새해
살해
##리즘
였으나
어쩌면
허벅
타인
부총리
렌즈
당당
여권
마산
운송
포털
텔레비전
글자
필리핀
스튜
남아
오페
승객
셔야
난다
라이프
아이보리
철거
단추
정면
수천
농장
아니면
나선다
##워하
실태
헬스
깨닫
환경부
##저히
글씨
강경
성실
##긴다
염려
온갖
파란
김진
단축
육아
돌아온
아픔
##운동
향하
병행
대주
셔츠
원했
터키
지불
첫날
##가루
떨어질
주재
피아노
으리
고지
성폭
신장
필자
터미
정규직
불거
라니
한진
기법
포르
아이폰
가라앉
단체장
방치
약해
분열
입혀
건수
철회
와이프
그라
재건축
확률
국세
세척
##구니
지나가
82
사회주의
세정
눈앞
날씬
과자
사무총장
요원
위로
안타까
타운
##로지
##CD
사후
형상
발효
네덜
네덜란드
피지
별다른
볼넷
안양
프라이
웨이
관행
오빠
용산
##it
지부
해안
공정위
침묵
사무소
자사
##바람
##카락
권고
바뀐
머리카락
우리나라
스위스
입원
잡지
샤워
입력
스피커
##현진
반지
장수
가해
즐거움
감축
##본다
순이
유모차
부패
순서
화폐
##용차
86
음반
가속
담당자
한창
야간
솔로
허벅지
고시
집니다
발주
에이
변형
치러
똑같이
유산균
상의
원료
교장
##ㄴㅇ
세이
##어내
경로
벌어진
중국인
워터
##바이
양호
강릉
받침
상사
이겨
##랑이
당원
일체
연합회
##가운
미친
의해서
회색
놓여
일본인
법칙
뇌물
애초
지낸
둘러싸
함유
고사
##처럼
주한
디자이너
농사
어우
크루
전설
79
간호
저소득
뒤늦
본래
형편
재원
두려움
도청
##주시
따지
모를
87
브리핑
자칫
기재
고수
날카
교황
일요일
내정
독점
급속
스코
식구
원활
무산
개소
독재
나아
가사
도약
모른
관람객
잡히
실종
우산
청바지
한미
해수
사각
시세
풀리
언더
81
부스
항공기
호응
흡입
숙박
뒷받침
종시
공중
##he
선풍기
발급
솔루션
열기
결혼식
당내
감수
니트
현관
기울이
떠난
꼽힌다
개운
일반인
보좌
차장
대다수
140
EU
허브
터미널
##성장
의외
미용
##mu
부적
편의점
어릴
성취
항의
추모
적정
차질
##런스
중시
인쇄
전무
시나
전적
건설사
패스
조지
명시
하도
어차
각도
현역
##닉스
한강
금강
마라
당기
자회사
국어
외관
프레임
혈액
##컨대
명회
리스크
어쨌
원고
묵직
차세대
##테일
갤러리
비례
벌금
아담
단백
노동당
##널드
사면
원천
포근
어차피
북쪽
표명
드레스
실버
무력
바래
언젠
비로소
육체
거점
까닭
귀여운
자존
김기
김민
측근
불행
오페라
마른
꼽히
달콤
신비
##산부
코스닥
상영
수렴
양념
다룬
나간
서서
한도
금감
표기
줄기
##ic
김포
후속
즐거운
로스
유효
폴리
사운드
산림
삼진
국면
##데이
신생아
MB
절실
늘려
살아남
수당
벌어졌
타사
한결
외모
데려
오래가
읍니다
되찾
본선
##메이션
##^^
97
다가오
주소
납부
이뤄진
교섭
##ㅋㅋ
법무부
뿌듯
국무총리
양자
신혼
수험
중순
1500
통장
학위
시켜야
패널
착공
분산
##내리
어색
위탁
올바른
은근
걸릴
96
오류
##시간
협동
선거구
춘천
인천시
아름답
건의
졌어요
사찰
서해
현직
날개
##테크
가만
##
기스
메모리
동서
증진
타선
존경
생생
인디
서초
더욱이
부가
클렌
위성
비트
일환
받쳐
나타난다
청산
기쁘
##직자
김연
시술
추락
포도
리필
공화국
접속
스며
달랐
최순
##정부
어리
센서
##하나
진동
맥락
들어선
##스레
나타냈
갑니다
하여금
책임자
돌렸
83
여섯
먹여
태풍
공세
응급
##하여
출력
말리
배정
선교
매도
##어넣
응대
직장인
여객
패러
몰리
900
놀랬
창립
공기업
푸드
단원
만기
170
반찬
슬로
세용
##버그
출간
추격
학력
놓치
간절
사인
합쳐
상식
오피스텔
##주얼
고집
달린
탐구
떨어져서
##대문
액션
동남아
바닷
우위
무언
91
##피아
분당
퇴근
##시오
105
메르스
삭제
차라리
던가
아님
잉크
소독
연애
선제
뿌려
김경
블루투스
증언
조이
죄송
과시
쿼터
벗겨지
##혀서
이너
강행
원목
간주
##뜨렸
##튜브
관중
류현진
미터
가맹
부드러워서
던져
치마
사립
치유
빵빵
유튜브
비평
92
구경
명백
거칠
더구나
주저
생리
지난주
감추
89
이모
재활
관여
창고
##구역
이수
까진
도대
한류
##mula
어둠
지났
햇빛
##무게
##느질
백악
##거렸
마디
##타인
티켓
내놨
차분
고추
자부
##두리
formula
쌍용
발등
감자
육군
민심
벤치
고스
의약
NH
몸무게
따듯
언젠가
##지능
인공지능
외교부
구호
코팅
퍼센트
단백질
중개
##셉트
모순
금감원
랭킹
수명
해져서
##파이
히트
시신
쟁점
꼬리
임상
출자
새끼
##어리
이쁜데
낭비
대충
마사지
대원
바느질
국경
노동조합
큽니다
장학금
그야
시가
최강
빛나
공업
##외선
##드라
에이스
공익
지목
심정
조세
강렬
수선
기성
##풀이
뛰어넘
##et
태평양
##스틱
##시스
순이익
사업장
94
까다
볼게요
김용
화합
##동강
신사
치아
편입
고조
감지
뷰티
일지
들어와
안성
도대체
저작
의상
##렉스
네티
오렌
서술
실체
송도
베르
유족
끼우
적시
타율
동향
베이비
내보
메인
자석
개장
안동
상쾌
신상
자제
정통
그야말로
곤란
내비
네티즌
낚시
비극
그레
가습
##ST
보입니다
바를
견제
줍니다
생애
아름다움
맞대
간판
얼룩
1960
짐작
생계
속하
교통사고
이영
내주
보풀
지문
김수
뛰어들
##is
월급
버릴
식민지
합성
커뮤니티
포스
치킨
##트로
삼각
의결
##다지
구름
조그
세미나
플레이오프
급등
증세
조약
##둘러
폭탄
지난번
놀라운
##공간
떠올랐
고가
줄일
반전
특위
난리
93
종로
피곤
백악관
달라지
명분
구워
영토
분할
포착
주사
조립도
운항
이대
궁극
성립
##어붙
부리
서서히
전기차
우즈
타임스
등등
##더기
오렌지
IS
비해서
LED
위안부
마운드
들어온
이집
이집트
혹시나
연다
유망
터널
블로그
추운
라이브
불황
수소
스펙
뜨겁
음주
##데미
마스터
테이프
IM
커졌
보충
이적
맞춘
##마크
선수단
시너지
육상
빠져나
직구
버티
사냥
리스트
모기
마약
접하
선행
^^*
장례
어둡
초등학생
혈압
호기심
슬픔
시상식
제작진
김대중
틀림
시나리오
아카데미
녹음
절약
독도
흑자
##고리
##구리
거둔
과학자
오를
##톨릭
투기
유혹
서기
화력
항만
민생
상한
##해야
양측
내용물
채소
스웨덴
간단히
축적
모공
사도
공작
불안감
불빛
스피드
겨울철
식량
수납공간
1995
재현
보여준
노예
##셔널
넘어서
귀족
염두
금요일
별루
태어났
이병
BM
초록
게재
재직
달달
사양
동아리
순천
노총
수년
종전
던졌
##화문
주유
유전
계시
태극
참으로
라지
면제
기적
발바닥
당뇨
ㅇㅇ
모씨
개그
애니메이션
천억
이듬
블라
FA
주고
승용차
만점
보강
IB
수위
박정희
안산
제휴
앞세워
스틸
##꿈치
부피
과잉
대단히
남긴
따져
등록금
개시
교원
정교
물고기
다짐
윈도
그다지
토크
목격
행태
사연
##트라
응시
MC
갑작
재학
새겨
전교
직면
우드
철수
부천
체중
이럴
을까요
내장
활력
ml
내외
수산
용이
상주
강남구
음식점
라기
여사
은가
로즈
##FA
아무튼
쳐다보
이라크
댄스
발레
부양
비결
낙동강
처방
터져
로맨
유선
일어날
예술가
감당
공방
확립
로고
전사
미스트
##놀이
반사
수신
그리하여
예산안
그닥
말라
소모
증인
기다린
부도
이듬해
아이돌
노동부
xl
내달
지경
신동
트럭
미쳤
느린
도서
명문
스틱
잖아요
고스란히
사격
몸매
피고
외치
역임
베리
제법
소금
단골
빠짐
IP
단정
좌절
전액
방위
이를
공직자
칼라
디스크
어쨌든
##TE
상큼
무죄
생산량
도널드
추출
하이브
주연
창원시
미국인
결성
환불
세안
꾸며
김광
색이
도장
숨겨
상품권
신한은행
아리
절망
려다
##♡♡
기차
배운
선보인
발판
이야말로
온몸
##일으
디테일
점령
불러일으
요거
일어
접목
메달
청주
무언가
저하
베란다
등지
저런
보복
고구려
월요일
구김
매니저
돌아보
한국어
바꾼
조종
드물
일기
부하
확고
전술
안타깝
잡아
하이브리드
##일랜드
##받이
무너지
코디
##동생
앞장서
갖췄
중학생
내려오
항공사
맨날
수월
장갑
스튜디오
모범
겠어요
달라졌
재계
왠지
여신
대국
위장
강좌
클리
단행
할려고
못지않
날리
전신
매월
정말로
역설
여파
항소
##려구요
미흡
안녕
플로
시달리
정세
합작
스승
협업
신나
허락
높일
주고받
한숨
지장
리스
전직
느냐는
미스
인종
더운
도저히
세무
##드름
성숙
통산
관장
자존심
수성
게이
눈빛
맡기
억압
토끼
초월
걸림
아토
정무
경영진
크로스
유적
멘토
대지
일선
지원금
문건
저널
##시마
바둑
교통부
튀어나
건조기
가까워
남한
요새
하나하나
으리라
논술
포괄
아랍
민트
치매
오스트
분사
콘셉트
흑인
사자
감사원
염색
##쳐서
떠올리
남양
부른다
국적
면담
페어
약물
명의
장성
수확
코미
동아일보
러브
키스
##차례
둘러보
바쁜
다녀요
첨가
운동장
방송사
원형
유독
자분
축산
as
버려
여름철
정황
주먹
계란
용서
##지니어
당첨
스쿨
이뤄질
인접
##워드
프랜
탑승
1996
부재
대주주
##저리
입소
그해
스러움
장미
일일
텍스트
외국어
협박
주전
내각
데요
대항
인턴
시리아
고인
아나
특별법
kt
스리
낸다
245
스토어
제어
연세대
느껴졌
적혀
##급식
미루
의약품
무상급식
동쪽
내릴
신성
성서
일으킨
상권
으려는
크로
간지
양보
억울
트로
##--
가톨릭
그림자
몽골
봉투
양심
흥분
가짜
클렌징
조율
거세
##걸음
발간
책임지
약화
##80
봐야겠
파고
힘드
볼께요
시집
마라톤
잉글
착각
내세우
##러져
힐링
수상자
마구
들여다보
공백
회동
지붕
손쉽
예컨대
마법
볼륨
1994
업자
가하
인격
아스
김지
정장
이윤
경관
이득
공군
필기
학년도
##무성
복구
아산
혈관
왔어요
##ou
중기
어머
예쁜데
미지
정한
알맞
초코
토록
착화
##경기
응답자
끼워
여주
삭감
부근
모서리
달라붙
어울릴
매진
분유
기다려
막판
골든
##스트라
빈곤
골랐
가만히
모이
드린다
교차
##드로
아파서
고려대
커튼
입자
입점
으려면
접어들
##om
##저스
도박
낯선
두피
BMW
캘리
둔화
SM
추첨
망가
센티
##사리
서쪽
소용
건국
울리
특가
조선일보
우정
카라
기숙
엇갈
보라
중부
이유식
처장
텐트
##고속
##깅스
메일
##릭스
단말
##베이
급격히
나뉘
한전
백제
##오르
##티나
권유
레깅스
오케
수습
표지
스타트업
##세포
개관
자이
취미
##배우
특혜
계승
방영
페르
차트
겁나
보행
여드름
체인
트랙
189
머무
생겨서
기둥
연동
장인
벌인
성사
쾌적
퍼지
지역구
마실
상용
관할
비유
필드
경찰관
걸친
지능
몰래
발길
발가락
정유
걸까
카운
아깝
입기
슬리
장마
농도
평상
명목
해피
중재
제발
오로지
야채
##파크
밝혀졌
##미터
아일랜드
진전
결단
반해
천재
레저
스프링
불신
학업
국세청
끈다
왕자
당해
##박스
그대
당선자
자외선
어지
피할
대조
물려
끌려
국비
간격
마셔
손흥
건축물
동북아
광화문
이태
소극
##들여
대세
뜨거
외곽
추위
손흥민
재발
떨어진다
이마
괜히
경위
자격증
시립
무거워
LH
통행
복사
두꺼워서
닥터
전동
출고
세수
##니즘
이데
일행
##레이션
파격
##시다
석탄
근원
다큐
김정일
억지
와요
이치
이뤄지지
북측
크레
패딩
저소득층
청춘
이지
하트
빠질
목포
북구
각지
무인
오브
가르쳐
##겨울
광명
금품
무덤
멋지
가져다
계곡
국물
병력
통신사
믹스
언덕
동행
상판
수강
법조
교도
을려고
동성
보리
사흘
##모로
깔창
유물
us
일일이
##드리
##el
감면
지우
##느리
한우
모금
압수수
압수수색
신종
아오
열풍
조국
굴러
리드
##느님
깨지
화해
당선인
불펜
##CTV
광양
하느님
신념
구청장
흥국
소득세
관광지
내밀
내지
유분
인체
박주
엄지
책정
구리
열릴
괴롭
압축
위해선
소홀
##연합
레스토
레스토랑
혼합
스카이
##센터
CCTV
수평
변함
수차례
살균
##갑니다
천장
양면
##유산
원조
##로드
강동
환기
쏟아지
장벽
모인
여왕
미드
말레이
해져
다크
벤트
나빠
찾아내
루타
감탄
교복
기어
일으켰
비누
유인
유세
##토록
소원
요양
서둘러
조회
복무
경제학
##식간
조용히
생선
봉지
공조
내걸
##무지
##패드
##트롤
이루어진
왕국
이어진
소주
책장
면허
전방
좌석
영리
유기농
##위원
자책
전철
검진
어떨까
##re
유승
지상파
도모
박영
시어
중립
야생
연이
이산
컨디션
친절히
분배
준다는
경사
딱히
방한
월세
반려
수여
통통
성형
성질
##NA
관해
난민
클린턴
분량
##블릿
공구
일가
순한
려구
해설
##매김
관심사
##리케이션
자리매김
섬세
##TX
출국
아닌지
누나
##레이크
수질
쇄신
머릿속
시켜서
공영
우연
옷감
치우
광범
무효
악기
치고
반신
마세요
체감
거북
추워
헌신
폐기물
코미디
다채
이례
수량
나노
##ㅎㅎ
통째
##지부
분담
선포
프린트
전락
상원
한국은행
가져가
기증
입문
대한항공
가중
토로
크루즈
소집
민영
알파
##실험
여러모로
목걸이
물어
피스
##밀리
이어진다
프로세
넉넉히
만성
추측
양도
유니폼
전송
그러니까
동점
순식간
밀양
아랫
베를
이뤘
십자
드라이버
해법
재킷
IC
태블릿
김일
집값
달래
상속
딸기
달렸
교역
하수
산소
##임스
크리
잡혀
##물산
상정
아티
찾아볼
군부
김병
열악
상관없이
원화
빠져서
전임
##먼스
집중력
조상
소품
자르
매운
성경
하천
남구
배구
^^;;
선보일
usb
삼성물산
##공항
##니스트
대사관
청탁
장기간
알렸
배웠
##관계
이메
도요
생성
동아시아
인성
나와요
실감
강해
발의
##무기
약자
공연장
낙찰
##리지
넘어섰
참모
정국
벌여
추경
살림
수송
세로
횡령
니까요
##올로
김주
충전기
##밀히
원대
##스럽
치솟
국민은행
잔뜩
화가
##저분
##주의자
##타운
핸들
희생자
장단
건전지
중지
미끄
내역
추산
답했
타석
##머스
세여
유감
성장세
견디
신재
심심
##태프
핵실험
돌아와
##버트
획기
##NG
제로
엔지니어
더워
파우더
입단
뻣뻣
상향
먹거리
한방
인데요
배포
입국
장만
흡연
예의
듬뿍
승점
주역
돌아갔
말레이시아
되풀이
활기
막내
숙소
탈모
퍼포
열려
SU
따위
제임스
퍼포먼스
아메리카
극심
스페셜
셔요
본능
몰라도
##le
건네
로켓
물러나
엉망
노벨
사망자
마비
발랐
번들
이메일
정화
옮겼
강정
##이팅
모시
누릴
노르
출판사
우아
밀접
평론
투구
자매
안감
대략
캘리포
통로
최우선
그랜드
드래
온실
삽니다
언론사
캘리포니아
민정
속상
지루
뽁뽁
KTX
드러난
구사
신탁
려다가
느려요
##팡이
산정
일곱
IMF
흔들림
편견
출생
사막
행운
찾아오
파라
호환
##옵니다
발탁
출동
배분
윌리
tvN
배후
펼쳐진다
피의자
명소
변비
##빨리
프랜차
제의
##몬드
##키스탄
흥원
임산부
베네
KCC
대치
호르
체질
여고
##아웃
파스
일간
맞춰서
국채
펼쳐지
##유럽
휴양
##원장
고른
프랜차이즈
지켰
창단
정전
좋아합니다
부추
할리
내구
사명
한눈
##퇴근
광복
중복
가맹점
잠수
일제히
어선
조속
집착
##ion
우체
피자
돋보이
파주
하원
노릇
모형
척추
루수
청원
구겨
감옥
홍준
부풀
주유소
제치
시야
발명
서점
려니
느낀다
수색
엑스포
이데올로
이데올로기
신약
액정
와이파이
젤리
부시
##임금
지르
범인
##60
살피
탈당
면도
전도
달라진
심해서
캐주얼
지각
쏠리
도우
박차
##소시
감독원
킬로
비자
##교통
사령관
자영
장려
타수
##테이너
이순
사라진
백신
해결책
비스
손자
유래
전격
인조
##ing
공산당
##저냥
우대
머물렀
정해진
잉글랜드
어느새
부끄러
약점
플랜트
한양
자취
송파
침몰
을수록
공격수
AP
광범위
센치
걸려서
급락
##DI
##남도
양치
새우
##거나
중형
함량
커질
맞물
음원
광부
저서
추상
업소
싱크
들어간다
운동화
어머님
대수
고무줄
농어
모니터링
무서운
보좌관
시카
안건
피고인
립스틱
재해
디젤
랍니다
산지
목록
원작
좀처럼
키즈
텍스
인건
사형
산단
설사
천문
박원
제형
익히
불꽃
아팠
출퇴근
FI
간사
LTE
단편
매끈
홍준표
김장
그냥저냥
무섭
아파요
남용
##음질
에코
영감
연비
파도
기업인
부합
삼국
컨트롤
클라우드
그래픽
종사자
해운대
1950
주어진
수장
##센스
서식
치명
박성
클래스
황당
재판소
바쁘
한복
농림
최후
트레
보석
1988
##바라
협동조합
병역
기미
##토리
사직
본회의
##ood
산다
성당
할수록
따라가
단말기
해임
출제
1992
편히
왕조
달라요
##멘트
으라고
자부심
바스
단절
휩싸
응용
긴장감
내다
폭로
실효
온전
##금리
회원국
임대료
피우
볼트
끊이
눈썹
담론
소유자
마인
장시간
기뻐
나타날
수유
##as
규범
종아리
일수록
분해
미끄럼
지저분
배울
보정
안주
열쇠
속성
##두르
분홍
복음
인건비
##개발
홍삼
선반
폭넓
DB
초콜
별명
김연아
부를
##조리
공존
진해
팔리
가드
각기
##먼트
펌프
잠재력
박계
쌓여
액자
제사
동결
타협
게이트
포지
치료제
이라도
호평
후쿠
더라면
스러워서
우세
합창
경유
고성
대접
끌어들
상관없
둘레
단가
##OC
끈적임
우스
##운전
매립
도출
베를린
중산
몹시
꾸미
유격
쓴다
실전
한자
국악
범주
##70
회피
애요
이노
##북도
서버
알렉
절대로
시비
파장
임의
중년
수목
##더스
는대
열매
소멸
구제역
이력
사교육
폭스
참석자
119
바늘
리서
만두
속한
스타일링
쓰여
나눈
김선
체형
버디
약세
기량
알코
기세
관리자
컨테이너
애국
준다고
바보
지원자
으러
종업
모험
알레
##소연
렀다
학계
폴란드
##징금
숨진
안겨
스마
영원히
푸르
##바이트
수혜
들어올
생긴다
##배추
갈색
레이저
캐스
보름
헐렁
단호
진정한
일산
선거법
질렀
##로우
김승
학대
보험금
이쁠
넘겼
웬만
닦이
##플러스
##감치
쫄깃
총수
밸리
##40
검수
##찌감치
닷컴
로움
##워야
오케스트라
업적
##수기
##저우
1993
그분
마늘
입소문
마냥
시속
앞뒤
향했
프리미어
교재
1200
2500
설탕
걸맞
##소년
실습
강변
입체
등받이
##피탈
##데스
기숙사
스윙
소니
와중
배수
요약
중화
분포
고등학생
호랑이
접근성
##베이터
보증금
그루
동호
##다임
패러다임
사이드
종업원
포토
소망
밀집
소나무
전월
배우자
##고루
다가가
전수
창구
번갈
좌파
자립
오사
웨어
해변
신흥
뒷면
음식물
##호텔
이목
리서치
연평균
리듬
배럴
파산
속속
하얗
야기
창업자
지역민
느냐고
줘요
##가리
올레
반신반
연한
육박
간직
미분
되살
알코올
##테랑
면모
인과
장거리
물음
1987
염증
원금
역동
사소
수호
반환
온다
만지
돌아다니
백인
프린터
움직일
최경
프로모
하이닉스
기각
##쟁이
포수
반신반의
산학
홈플러스
고속도로
수직
주파
##이도
세심
지식인
흡입력
##텍스
보온
가습기
득표
슬라이
##사업
친화
스팀
박음질
##오스
추후
클릭
단다
단식
양배추
선크림
유가족
낭만
##관위
욕실
지형
봉사자
CN
잇달
차림
휴일
급히
외식
##DP
카시
줄줄
실밥
진도
농담
잠들
볼거리
불쾌
누락
##타르
였을
라인업
최저가
광산
어항
견인
넘나
##PGA
충동
아르헨
약품
220
마찰
##부르크
오리온
충성
망설이
양해
자영업
기상청
출현
애플리케이션
자수
##의식
정의당
세정력
무사히
아르헨티나
말랑
가져오
시크
도리
##포구
제이
통일부
특집
사용법
태우
공문
기울여
연고
앞당
합계
수원시
##바다
##구석
이루어져
현명
박찬
호르몬
유방
##비드
편했
으려구요
줄어드
침략
다름없
101
늘어
골고루
그만두
SUV
받아들일
내려놓
빼놓
연루
차가운
팽팽
제철
방울
부속
했으니
중심지
전산
슈팅
맛보
가위
마이너스
트라
간섭
계정
이룰
화두
영구
올게요
화장대
최저임금
어치
액수
정직
손수
맡겨
어긋
누리꾼
모자라
실은
공감대
프로모션
박종
소설가
손톱
롯데마트
중소형
아티스트
윌리엄
마이클
##시설
여아
유교
요금제
리뉴
##어로
관건
박지성
LA
헌재
손바닥
상상력
##르르
백만
랄까
메이커
남길
스캔
고쳐
흘러나
카이
간호사
중세
잠정
줄곧
아사
자켓
신차
특강
인센
탈퇴
인센티브
든다고
잔치
김준
정복
##폴리오
십시오
포트폴리오
공룡
방문객
가문
분과
합법
스트라이
결승전
만주
입건
피트
우편
퍼져
지나친
놓인
리바
옷장
검출
##팩트
해경
기르
모의
고치
연구자
문득
슬리퍼
지극
유한
방통
##도어
스며들
탄압
농성
려던
##커트
출구
미뤄
사라져
택지
직선
교훈
수비수
통영
화상
그라운드
차익
정했
훌쩍
환해
매개
뜯어
연내
볼까
1991
##ㅇㅇ
베테랑
부엌
회의실
생각나
사요
해킹
유의
모던
멋있
실사
게시판
부임
공판
력사
##영향
노란색
윈도우
이원
부츠
미미
법령
치가
오락
메디
지지자
마르크스
led
메가
가리키
히어로
수동
필립
##티지
해산
허술
발상
개개
했으면
##러운
행사장
하하
대법관
자재
홍수
했어
반기
우체국
치과
그래야
치른
부유
찰떡
카키
그릴
어딘
저렇
대중교통
좋아해서
일찌감치
영세
셀프
틀림없
사방
드론
객실
제압
이어져
초콜릿
##동력
서브
행장
인문학
350
진압
으셨
취해
파문
수거
돌보
소량
제보
체류
되돌아
수영장
바삭
유료
침입
안개
증여
구해
찌그러
거제
할리우드
단연
US
##볶이
소폭
임차
약국
포스터
동포
우회
처한
본체
일련
도시락
##ol
발령
헬기
머니
로비
메리
곡선
##구마
캐스팅
마루
벤츠
리본
온천
배추
##그라
사제
퇴진
폭풍
##루미
모양새
대여
엘리베이터
당대
레이어
조짐
이제야
거치대
ICT
유성
위력
법인세
펼칠
경전
신조
마일
260
붙인
자질
옷걸이
녹화
싸구려
이사회
##방울
재선
고심
놀랍
그늘
루즈
아마존
환호
이경
고래
다지
주축
고속도
끔찍
##업자
접착력
트레이닝
회화
수요자
레인
러닝
나비
전교조
우울증
총력
원룸
##스크림
서정
##쓰기
신다
레몬
##행위
온실가스
물결
나세
반란
아이스크림
양극
젖병
운반
조류
연일
순해서
항구
결함
위법
작곡가
손꼽
상표
양파
앞쪽
져야
너머
동지
##평가
하버
각인
유죄
##르기
넘쳐
자진
발걸음
올리브
평상시
분단
흡수력
중앙은행
간장
정조
르노
총액
탄산
버린다
회생
정립
맞대결
아웃도어
시행령
김일성
입대
제네
줄였
더위
리터
선착
##네스
선원
전진
동굴
떡볶이
아르바이트
##지노
우호
터진
숙제
불참
어묵
270
악마
차종
치밀
자아냈
영주
감찰
필수품
상시
껍질
액체
팬츠
##여행
시진
과하
계신
경보
공통점
사모
배기
깜찍
나눌
식감
##사스
추신
동국
섹시
후드
등기
민속
납치
배신
때리
인삼
무더
조별
페인트
준수
대부
취한
브레이크
검거
장교
스탈
##병대
아이패드
샌드
다각
##자원
덩치
꼬집
내년도
교감
##성기
빨간색
거꾸
핵무기
변했
외장
STX
보스
소식통
여학생
건가요
살아나
흠집
종사
이즈
도둑
찾아왔
군산
오리지
##오래
햇살
무거워서
폭염
테니스
나눴
주무
연안
남다른
다우
저질
영양제
신년
하락세
##크라
입금
극히
박태
남친
나이키
군주
관계없이
##PS
심상
이온
꾸려
시일
01
효력
차려
##TV
올라갔
엘리트
산출
##기에
예쁨
잠옷
질주
사계
^^;
강호
경호
주권
털어놓
재즈
아쿠
명확히
뒤지
##테이션
색다른
동전
##퍼런스
너희
의제
금연
나마
##-^
오디션
포로
세균
##걸리
필연
악재
열흘
정시
대리점
세입
리모컨
속눈
삼성그룹
1989
##추어
엘지
##같이
후손
습기
센트
트랩
내정자
대서
전문점
추신수
휴게
매물
개조
국왕
조그만
##위원회
무실
##il
암시
##로움
탐사
뒤쪽
몰라서
궤도
##반짝
연도
뒤따
가뭄
적시타
다면서
연하
비단
던진
lg
##디움
막걸리
이리저리
공로
예배
백지
##키퍼
전경
수련
##자치
골키퍼
첨부
##여겨
텍사스
발열
아디
슈즈
##ch
불어넣
수건
증가세
가령
변호인
정우
##ㄷㄱ
##us
기하
##욕장
##마다
비틀
불린다
어라
으라
결과물
환승
산업은행
데이트
코코
각별
파인
천주
원자재
114
##매매
##은색
광역시
스탠드
##연구
권역
눈여겨
반짝반짝
##싸움
요령
플레이어
두꺼워
봐야겠어요
취재진
오스트리아
파운드
개체
숨기
ㅠㅜ
쫀득
함정
고는
노랑
서사
내신
타이거
김무성
바이올
새삼
자유주의
교양
평일
##피소
DM
##멘터리
일으켜
구비
탐방
good
교부
다듬
유쾌
##규모
연초
성폭력
##제철
요법
에센스
;;;
양육
테일
##셀러
비춰
풍요
울음
휩쓸
다큐멘터리
시체
철학자
도요타
이견
공론
속눈썹
화요일
고립
보물
설화
카시트
대입
박상
이인
매직
꺼지
가담
궁금증
마스카
오래오래
워시
농어촌
어마
외신
장병
통계청
거꾸로
괴물
발려
##am
패밀리
다툼
LCD
CD
영등
##라인드
서랍장
편함
마셨
진행할
이대호
박병
애인
##셔서
##뜨린
리버
하향
엉뚱
상수
##커녕
아마추어
계약서
360
모호
인명
탐색
성남시
스마일
효성
포켓
천하
성폭행
교대
구할
##소시엄
들어섰
컨소시엄
시드
감사히
박진
##지대
표출
공자
빌리
끓여
사설
복제
나간다
가파
포르투
본드
마스카라
두려워
연소
오지
혐오
미분양
워킹
소액
신지
산행
휴지
날카로운
사령부
산악
선별
상해
피부과
난방
난감
##연대
##사람
사려
##길래
맥스
끌어올리
소규모
이해관계
가르침
##협회
올라왔
맞췄
소상
증설
##국수
##마토
유난
앤드
의정부
약해서
저지른
온통
일본군
강자
휘발
^-^
성찰
이화
돌아갈
##생명
카르
파생
보임
그렸
정몽
시국
접한
##신문
성추
초고
방과
와우
환원
각광
형광
이겼
적성
임진
미션
다닌
블라인드
다이아
말려
##높이
ㅇㄹ
질리
##적으로
내세운
가세
신자
OE
모듈
여배우
바로잡
집필
평론가
입안
문화유산
선비
225
188
유재
영문
가축
혼인
옹호
키워드
밝기
예언
태권
히로
미스터
##러드
##렉션
간혹
구수
잔디
글쓰기
가늠
발자
강수
어렸
봣는데
가치관
##진보
간신
테크노
전한
달라서
성추행
날렸
##ro
##FC
사회단체
독립운동
들렸
수제
포드
이색
렌지
친척
내다봤
바이어
서방
##어져서
후퇴
언론인
면역력
방금
머신
날아가
##운서
물체
회상
골자
승강
아나운서
심리학
고의
화보
벌레
만져
최우수
##전력
이광
통풍
정동
거니
선관위
##스테
##푹신
곰팡이
낮춰
ET
이길
세단
점퍼
시진핑
서장
고구마
쌍둥이
블링
CG
##우리
멈춰
정년
고난
테두리
대구경
구절
깊숙
날려
남짓
몰두
부친
유예
법관
동문
은데요
민자
브루
일괄
에프
보건복
찾아온
먹일
부수
웨딩
현수
벽지
경쟁자
##타리
감촉
시그
급한
허접
나옵니다
165
움직여
눈부
정자
##라이트
홍성
털어
##공정
비대위
세이브
뭉치
낙관
포지션
드린
헤지
모발
접종
푹신푹신
박용
다저스
##거지
소아
안드로
마음껏
이뤄지는
가디
파란색
경연
시한
오사카
임용
드문
넘어선
제작사
섞인
알루미
프레스
돌이
김형
독려
담백
동봉
##벤션
존재감
찬스
HD
나이트
선대
특권
의료진
타결
성주
수법
재편
하구
고고
일회
복도
저절
넓히
베어
경품
약정
올스타
원한다
##에이
과태
화살
기인
셔도
아크
변해
컴백
컨벤션
호조
긴밀
##진보당
판교
디즈
판타
국수
학살
가져야
과태료
하의
변기
블로
아세
역세
윤석
당사
미네
DNA
논평
앙증
지옥
저절로
틀리
자책점
별개
관내
근절
늘렸
암살
손색
시설물
##90
보살
잇몸
통합진보당
터뜨렸
이승만
문경
전시관
옥션
해치
어려서
버터
끄덕
유보
##프리카
버락
푸짐
##서구
경과
쓸려고
덩어리
상임위
올겨울
##래치
채취
정돈
##본부
울산시
중국어
우월
남매
쉬웠
급감
이뤄지고
다투
언스
표결
정진
회의소
서적
적대
알루미늄
유진
음모
사옥
납득
당국자
이끈
스타디움
개막전
흘러내리
코레
퍼시
##고속도로
기업가
증후
묻어나
국책
환하
접전
가늘
시흥
스무
외화
무실점
활짝
특구
떠날
깔려
구용
##지르
기업체
가로막
##러졌
손잡
내세워
##돌이
##질랜드
김희
##발전
뉴질랜드
섞여
된장
노화
민선
##겨운
마인드
낙낙
호재
후반기
트레이드
보태
실명
자란
오만
후임
박원순
분자
칼럼
풀려
안다
##IP
대검
선점
큼직
모스크
대구경북
공지
유관
잠자리
개개인
아연
클러스
클러스터
막히
입수
전라
##기금
유머
걸림돌
두유
DJ
취할
##노스
##버리
구매자
##훈련
유포
몰입
동상
목요일
신도
대인
##포트
냉정
스크래치
군민
고양시
이진
도당
금강산
##봐도
낯설
바나
똑똑
발병
스태프
여태
공모전
종로구
##동원
허물
틈새
효능
때려
마음대로
이현
농부
##데이트
챔피언십
방북
보건복지부
법제
쇼트
유수
억지로
거액
시공사
영재
야구장
거슬리
방면
미팅
##야마
원산
하인
부지런
빡빡
탱크
이준
성별
업데이트
스미
사계절
지름
해온
쌓이
호투
문인
지친
보금
제조사
보금자리
참전
유난히
해지
홈경기
조망
해선
112
덴마크
본연
청렴
씨앗
호스
남미
넓혀
달려가
예매
다시피
서초구
선조
강구
풍력
관제
방역
상기
흔하
근접
본다면
2030
실려
메탈
양반
오스
실재
적힌
부른
대왕
본성
기원전
공예
국군
그토록
맞붙
아모
전염
고작
합격자
레오
정례
포부
녹차
농축
대두
조형
쏟아져
##로리
규격
##절기
해봐야
방탄
드라마틱
##줌마
원로
정문
여대
연체
실상
퇴출
모른다는
더더
오산
충당
호전
과징금
멀쩡
성매매
털어놨
터졌
백탁
자택
발음
가이드라인
레이어드
늘릴
청정기
자니
홀딩
데이비드
박인
쇠고기
00
무단
금세
올라온
아줌마
##숭아
인가요
응모
한겨
##엑스
##베르
인내
포르투갈
리우
##테스
국한
흘렀
가해자
말미
정보원
총체
이승엽
남동
팔찌
##고사
동대문
과실
겹쳐
분비
설득력
알렉산
국외
불공정
치안
여정
한겨레
코어
강력히
덜하
##타이
##살이
경량
증폭
스커트
of
스텐
한인
대표단
최애
프로세스
##막이
##nd
인지도
##유예
전복
격리
신다고
처녀
분실
받침대
기념식
주니어
직권
서원
과다
유승민
왕복
##총액
##세서리
시가총액
내륙
당할
국고
GDP
국지
음악회
광택
차선
기피
##치기
라스
쿠바
기득
선동
스폰
위임
##천군
##무늬
다닙니다
아홉
점프
정점
이순신
기용
부평
퍼시픽
박탈
증후군
예쁠
재임
갈비
생수
##치마
길러
로선
슬로건
위조
단맛
MS
이석
경쟁사
징수
시당
##플레이션
잊어버
수요일
실크
##키아
격렬
지체
햇볕
송금
내다보
펼친
왕실
셰프
##프리
지극히
결실
옥상
두부
여겼
라이벌
문체
드라이브
원시
천사
##폭신
##드라마
쓰일
##필더
미드필더
##레나
구형
##구장
바짝
부의
한은
후진
국감
##기구
승격
KA
며느리
참조
노스
학급
정답
천주교
강전
그려졌
찝찝
오세
컬렉션
수감
가산
내재
승차
들러
##소통
인위
마술
유상
이브
착해서
의사소통
어두워
막강
워치
고독
특례
겹치
하얀색
알뜰
외쳤
에피소
에피소드
이어서
고부
실린
사외
인텔
쇼핑백
폭신폭신
가꾸
##사이
결산
상하이
루이
유신
욕설
행하
바뀔
알차
담장
항해
달라질
권단
수영복
경부
퇴임
수산물
박지원
반격
에드
피어
권익
텃밭
느껴진다
세라
손길
FIFA
상류
풍기
세종시
시멘트
##습니다
강점기
따돌
재테크
설레
쫓겨
마리아
모비스
상단
곤충
드러낸
마신
흔한
포크
장터
항쟁
공용
반값
연전
저마다
바꿔야
서면
쓸모
자네
대명
외형
여가
침투
##클럽
로맨스
JT
귀신
하청
잃어버린
천지
골퍼
조여
여덟
스노
##베리
성균
올라와
전일
구부
##북자
토양
여과
내세웠
마드
연기자
주어지
톡톡히
우물
기념관
성균관
몰렸
권장
현대인
치렀
파동
##세이
어린아이
대본
나뭇
후유
어리석
펼친다
원격
모방
홀딩스
리원
김밥
출하
명동
벗어난
띈다
내포
선장
보궐
거래량
간신히
도래
써볼
승계
넘긴
튜브
대림
시카고
받아들였
저조
스터
세븐
한국전력
##든지
석방
레일
코오
멜로
경인
##크리트
하버드
조끼
일리
ㅇㄴ
떠서
전투기
하도급
##줄기
살아온
오리지널
조원
##티아
스러울
생겨나
강진
##os
장례식
민족주의
짐승
지켜야
고종
사임
진공
머물러
절제
##OS
소신
니스
동방
귀여워서
분수
밥맛
성동
묶음
정형
미생
in
무안
주파수
##10
집들이
불렸
백두
대성
코오롱
솜씨
안드로이드
이스트
##페이
정산
미얀
##운다
게끔
자이언
지킬
민영화
승자
들으면
##조선
주춤
번영
은행장
이대로
뭔지
그제
경희
만료
연산
핀란드
한껏
레고
##상부
끼치
원동력
콘크리트
가마
임하
천국
적금
비명
##나타
강국
상선
아플
또래
더더욱
들어와서
표창
스위치
우익
##LS
성령
##기야
청량
##더니
##베스
남해
##LED
##부로
정선
구로
특사
OECD
순조
##갱이
달라진다
몰락
문법
깨끗이
방석
관습
오른다
미학
항소심
수다
게스트
사우디
울릉
무작
냉동실
승률
전승
280
##모습
##부인
여느
산물
대교
걸어서
쓰였
무제
특급
키울
##나와
다가왔
미끄러지
적립금
##벌이
창설
기리
이창
김윤
이케
렵니다
카지노
미처
도마
중진
놀란
영하
복숭아
찬반
만찬
까다로운
어업
스몰
05
##로워
##외과
러쉬
상륙
행렬
내려갔
기생
##보기
말기
친근
##거림
청취
세르
아테
들어설
붙일
##박이
해냈
김창
저기
터뜨리
런닝
1930
눈높이
숨지
취했
본관
담임
스코어
대피
벨기에
대우건설
민사
땅볼
다치
표방
루이스
섹스
창당
여행사
재차
사용자
단기간
능동
앙증맞
이루어진다
워크숍
제자리
##매도
후자
주스
구석구석
사리
모리
파급
1986
집합
주입
계파
부위원장
생물학
에버
##끼리
SP
경신
전장
187
빠져나가
독창
한식
동경
186
공청
수첩
흘렸
아토피
당과
깨져서
##글라스
가진다
샤프
윤기
횡단
바르셀
지리산
로버트
음향
바르셀로나
입혔
어울려서
농단
##에르
보훈
건설업
지면
오름
주시
합치
조현
박시
##와이
##플렉스
##커스
##퍼드
됐으나
보컬
##민주
내줬
열망
구자
안장
야심
오토바이
도지사
구여
적절히
모욕
체리
빈번
당뇨병
잇따르
후계
##출산
스타킹
석사
##중간
단서
망치
볶음
매끄럽
##셔리
대문
럭셔리
가져왔
VR
승무원
정가
김인
떠오른
사이클
예년
어딘가
김문
실존
으실
##라비아
았었
휘발유
나치
목동
플라이
습도
심층
잔인
나뉜
여도
우량
SS
비침
태어날
잡힌
##MC
스프레이
유희
물놀
거둘
피터
Io
칼로리
러지
친일
청중
이식
동탄
빨강
순차
이완
익명
제동
125
뉴타운
신곡
리콜
입양
국제공항
걸치
다자
MV
상고
오키
습득
증자
열광
카타르
목재
승마
환급
외상
밀어붙
거듭나
나르
담합
놀이터
방출
재수
밑창
영수
정관
##하루
노숙
토종
##답니다
동요
헤이
동창
아인
오이
해수욕장
도매
연쇄
후보자
KE
길거리
표본
조선소
고비
역학
택했
국무부
직결
옥수수
실세
배변
토마토
유나이
##축구
##병원
라운
더욱더
자정
잘나
유나이티
##ps
부적절
초상
올라갈
떨어뜨리
훗날
뾰족
##네스코
등재
어떨지
헨리
박해
이별
##맞춤
수반
매콤
##런트
IoT
##자유
당면
회고
회로
넷째
트래
드나
##재단
후유증
링크
트리플
장남
습지
여력
문단
방송국
각계
##대교
기부금
소변
한샘
고령화
경기력
뜻밖
우상
풍선
사생활
앞섰
115
대동
##ig
공정거래
공정거래위
막혀
개원
요긴
밥솥
절정
요한
##OU
함부로
힙합
대포
카리스
진열
화자
암호
사나이
태세
신원
어학
평면
##블리
여행객
스케줄
교향
인자
이산화
해리
포상
사관
에다가
예보
벗어날
걸어가
빨대
스케이팅
왼손
지칭
캡슐
트윈
쏟아졌
통찰
전념
두뇌
갈리
상점
##란시
102
냉전
##벌레
생활비
실책
장래
클로
괜춘
유네스코
위쪽
개그맨
LS
할꺼
지켜봐야
묵묵
##월드
최장
각서
##레이터
분주
타이밍
쉬워
175
문항
즈음
르네
##킨다
해역
##어마
송이
찾아와
시력
균형발전
엄청나
패스트
보건소
금전
손질
사탕
옮긴
보답
성원
노르웨이
웨스트
잔액
케이크
##십자
과반
콜라겐
태극기
##란시스코
테마파크
가미
TF
드로
##ad
현미
신작
촘촘
걸린다
영화관
##시경
The
가져올
양대
보류
무수
##나물
교도소
함양
줄줄이
담날
고품
##틀러
맛집
신용카드
키웠
진이
심했
울려
두세
광경
쌓인
##운데이션
ㅜㅠ
종말
파울
종결
실로
문헌
##뜨려
파운데이션
암막
##범죄
도내
교직원
##올랐
익스
본점
자치구
구인
견딜
주의자
규탄
178
관해서
악취
소박
2022
취업자
엄중
배급
타고
불길
카레
국사
듀얼
조업
영동
사용량
유익
양주
라벨
1985
바나나
카리스마
안보리
항암
강당
##반대
상반
JTBC
직관
미얀마
명상
아쿠아
알레르기
줄지
##IST
부의장
##징어
산재
소진
##리케
##뉴얼
##숭이
##하늘
보라색
뱃살
지탱
스파이
마그
##ac
공신
오메
시동
밥상
용의자
어마어마
크라
숨졌
고액
추방
##대기
드럼
특색
한다며
나주
##퍼니
생전
실증
##파리
회복세
##라이언
전두
##날레
원안
반납
유무
일으킬
품격
대법원장
##퀘어
블라우스
떠들
밤새
##에스
##무실
흘려
LNG
재판관
판문
박재
신하
결선
##승환
##id
더울
쿠키
##철도
사지
일본어
충고
비준
마니아
전시장
단과
극도
못해서
평창동
아래쪽
선착순
수료
집어넣
폐업
탈북자
##모니
아이언
학사
돌풍
감히
김명
##어냈
자릿
유비
현존
변명
동정
**
인제
호박
##ve
##연맹
KG
잖아
금고
##든가
본품
슬픈
형평
봉쇄
라틴
결집
제격
남측
밀도
남산
##법인
미달
바닷가
그치만
선보여
반짝이
폭락
일생
##im
모스크바
시위대
완성도
동반자
타깃
캐리어
지주회사
챙겼
침착
아미
낙하
##바꿈
무궁
^^~
대타
신영
다이아몬드
싱싱
망설였
##뚜기
전작
망명
단종
서재
피크
♡♡
복장
재래
사거리
심포
집행유예
##공단
임박
총생
레스
대책위
거침
설교
드러난다
절벽
450
전례
저출산
파랑
노년
108
내기
체납
##내셔널
저리
경영학
어울려
인터내셔널
하네
연재
남아공
세율
이나마
아가씨
한라
##관광
##르타
잠수함
##IC
오마
중량
자궁
##질러
158
품종
경제자유
경제자유구역
할까요
십자가
주둔
납입
질까
지회
티슈
좋아요
순둥이
에용
이시
농약
접대
요가
으세요
항로
여동생
안타까운
모였
박경
방송인
번쩍
었었
벅스
사범
샐러드
돌연
##현실
찢어지
칙칙
좌익
액세서리
삽입
##다듬
사들
무형
의의
타구
조경
차이점
베베
양현
곡물
양질
컴퍼니
존슨
기종
##티스
##리안
핑계
발산
꼽혔
세자
사마
찍찍
조장
농지
##신저
##프레
겸손
매뉴얼
맞물려
가슴살
CNN
##벨트
신문사
전차
유공
어휘
입각
##모토
수출입
과열
훈장
CBS
스티븐
체온
표적
##린다는
##성이
##ent
다구
재품
조문
큐브
박주영
개발자
강성
가혹
과언
아무개
큰일
농수
김구
지질
문예
원회
##ay
체조
일당
묻혀
가설
공안
헤매
차리
대담
뚝딱
개막식
현수막
관문
군단
판문점
로지
##스트리트
##라이너
방사선
지금껏
피겨
사령탑
그물
두말
선글라스
이룬다
##평균
총생산
##코드
란다
아아
지휘자
신청서
함대
##ㄷㅅ
부응
김원
태워
개인전
책임감
구이
동성애
##김없이
168
시책
전성기
정준
조조
1920
증액
탈바꿈
서른
김한
##투리
펼쳐진
연주자
원망
법학
진통
껴서
주저앉
김혜
담화
UN
마력
##지오
도정
색채
##면적
시어머니
강물
리바운드
##ㅡㅡ
래요
주상
공짜
호감
행성
02
축사
노골
울타리
일조
하체
출루
처해
동반성
내셔널
캄보
EBS
보트
공대
페미
애써
에여
발족
여긴
세계관
시내버스
증오
공산주의
삭스
##말라
헤라
통역
풍속
미끄럽
185
슬립
아리랑
##운용
처형
용납
고위급
무드
반문
차입
장원
##비치
검은색
자위
유격수
돌아올
동메달
아우르
오징어
올인
마진
대역
거창
##디스
마드리드
모토
세울
##삼성
악영향
악용
유럽연합
월스트리트
사업가
절박
올라섰
버섯
탄도
머릿결
공립
친분
쿠데
일러
담겼
접시
구실
세밀
동그
애널
침구
소명
최정
바구니
전한다
과천
불출
뚱뚱
샌프
샌프란시스코
버블
타일
바비
오디오
그려지
주당
용병
##모비스
현대모비스
축복
기꺼
밀크
공청회
1800
램프
도라
학점
송파구
끝날
식기
후원금
웹툰
계통
저술
색소
마음먹
감격
팔꿈치
임종
구했
벽면
##러기
집행부
##여름
부담금
푸틴
한중
수중
속한다
월등
155
외야
일화
옵니다
구조물
##루스
만족감
구슬
월간
##오리
르노삼성
상체
녹지
시킴
철폐
코칭
정수기
자릿수
군더
##망이
캄보디아
2021
##스러운
##ot
깨진
어음
순회
전문의
보스턴
##페이스
무심
클레
양평
군포
남북한
베스트셀러
1300
돼지고기
샤오
듀오
카카오톡
군더더기
놔두
정주
페달
곤두
##버님
기점
회사채
즉석
정반대
루트
왕위
묘지
1945
정류
차츰
벌인다
침실
아이콘
불평
ETF
MVP
붙여서
스캔들
##동자
기포
##조사
힘쓰
상거래
프란
장편
쿠데타
칼슘
진다는
유저
인맥
##브리
피난
기습
##다녔
대권
은혜
환수
으니까요
가져온
정계
##서야
CS
촉발
명사
모유
피력
한텐
##권력
골반
누워서
세분
깁니다
수자원
1984
사위
질의
##세지
가급
끊임없
노라
대나무
연임
스물
어미
활발히
부결
부담감
토토
하와이
개량
##하고
주지
요동
정제
생소
거머
스톱
따갑
헝가리
탄성
청계
##그리
대국민
와이어
총기
##국적
거래일
따름
계몽
유가증권
명함
자산운용
달걀
다림
레알
오너
연어
평가전
중고차
나폴
산타
중위
잔여
체코
생산자
은근히
몸통
##전지
1982
도미
나흘
갇혀
접할
##마리
123
프렌
선호도
희미
생명체
에르
CC
관련자
해답
판도
후지
작정
시아
원주민
비관
외무
변색
체격
감행
급기야
행해
아부
사법부
레벨
냄비
기침
멸망
수식
그런대로
기다려야
수필
장애물
제국주의
배드
친숙
약해요
기꺼이
간과
미쓰
시끄러
유대인
아우디
필라
복지부
행거
##노총
가급적
원수
단단히
급속히
에릭
이드
특보
사각지대
국영
이재용
발기
시끄럽
흡사
스와
들어선다
공소
마녀
어이
##기지
반갑
여요
연중
폭격
서비스업
구동
파스텔
오메가
들여다
##IS
풍자
210
the
호흡기
기술자
순찰
상급
##공원
##AT
내비쳤
##화물
윤곽
합당
베드
ss
힐러리
거슬러
##의사
세액
##이식
밝힐
실속
벌일
엿볼
전처
귀중
ES
일쑤
종편
파이프
사합
켤레
안마
##허가
내려와
무능
박병호
사표
원서
동등
163
아시아나
하남
보이스
폭포
한발
결의안
적잖
조영
하단
##베이션
아시아나항공
다녀왔
챙긴
엄정
직영
미주
친한
카운트
코믹
화석
낮잠
할지라도
달러화
발표회
어버
스트레
##하이
벚꽃
1979
전두환
라이온
일깨
트랜
패권
우라
하루하루
상부
버클
블룸
넥슨
질투
신음
이세
여수시
환절기
출발점
김천
미묘
변한
로맨틱
사신
한철
이룩
화분
##이치
아껴
재빨리
이용객
명명
상습
쌀쌀
##네마
선교사
착오
둥지
불거진
##려구
시연
우뚝
145
쪼개
해외여행
입주민
1600
명제
비엔
머무르
잔류
저감
희귀
경산
원심
원한
박세
올께요
엿보
서열
노려
이방
##워했
##ow
입주자
쿨링
강했
차체
칠레
제각
발진
전대
만끽
합산
원만
종가
개미
김유
##주택
썼었
꺼냈
주교
소방서
체전
##으므로
광교
##듀서
프로듀서
챌린
이뤄져야
문턱
네오
지평
##산성
배워
수익금
급변
가평
가전제품
마틴
스퀘어
잠자
바치
민망
두려워하
내보내
##마켓
빈도
자비
지중
여간
이노베이션
어버이
##ur
판타지
페널
건넸
##위치
미용실
경감
##수지
청결
##가족
밸런스
생가
보송
외고
리치
103
데스크
휴직
실수요
허무
넓이
돌릴
말끔
냉각
TE
께요
박모
다운로드
나스
느림
##브라
##승부
장담
재앙
코끼리
발부
유로존
펴지
복권
술부
기관장
세속
이송
##갈이
사춘
트로피
강판
통지
OLED
자생
##시스트
쵝오
아유
막바지
추리
다길래
프린팅
##내기
메신저
주어진다
한파
사업단
아키
일까요
조속히
뜯어보
변환
교리
치를
넘어지
잣대
하드웨어
메이드
방대
##IG
무색
포장지
세입자
아모레
미모
정정
물러났
벽돌
한몫
북방
거쳤
여럿
파키스탄
팔레스
##캐피탈
잡혔
PO
본지
끌어내
반팔
추이
인플
극찬
알림
경지
운영비
립니
알약
조처
돌봄
운임
모빌
샀었
나날
나위
##도전
무너졌
공채
KO
##희정
식이
밀가루
##ut
거쳐야
서산
사우디아
법규
일컫
로워
얼어붙
공수
PB
감도
버거
귀농
엔지니어링
프라이어
지날
어스
토리
탈취
북극
역점
불상
권하
자선
제게
편찬
둥근
꿀잠
말투
목도
##예술
수정안
유령
핀테크
어느덧
아세안
신진
자연스레
하계
정경
소사
저렇게
부두
미러
유정
노동력
무한도전
##부모
사학
쉼터
여리
움직였
히틀러
포용
첼시
성희
내전
상봉
투박
늘어난다
막연
공법
당김
종속
보직
퇴장
리비아
왠만
일감
비빔
##민호
충실히
설마
천도
무광
후문
나뉜다
135
##란트
술집
절로
대승
주공
일찍이
고안
저주
184
광저우
버려서
이면
피치
시련
안락
PE
폴리스
체육회
송전
미디
태안
간다는
##구멍
이케아
##납니다
창의력
111
헷갈
사춘기
팔레스타인
##드레
우린
강북
265
다시금
반경
갯벌
하동
원두
고찰
헬멧
현대캐피탈
근간
틀린
##겹살
심혈
동사
여행지
도어
호가
꼬박
성범죄
애착
응하
약식
곧장
시킨다는
SW
커진
바빠
안면
다국적
삼겹살
거둬
테라
물리학
효소
장타
안겼
사우디아라비아
들려주
느슨
뽐내
수없이
절단
원소
돌아섰
퍼프
##지기
밀착력
설거지
##세자
03
벌어질
👍🏻
동조
##자재
제대
국기
유류
해라
웅진
애널리스트
##금속
##진다는
다뤄
따랐
##렁이
당겨
장년
반입
조선인
AT
모은다
분화
주식회사
강인
수퍼
지지층
여우
올라서
정재
##태우
아테네
해져요
깃발
앵커
##상스
저지르
비박
물통
배고
시뮬
당근
뒤진
사촌
추종
라벤
할당
김현수
경향신문
시안
벽화
거림
당진
민국
모터쇼
총무
레이더
##닐라
야마
무성
교보
사죄
관통
이청
팔렸
동산
연필
스폰서
기울였
래미
등극
스테인
무더위
은폐
안성맞춤
인플레이션
깜놀
##래미
만물
개교
1983
찬물
##나리
신형
충무
##ct
허구
지기
사육
징후
전향
젛아요
판로
스페이스
참치
##ag
KGC
강해서
염원
훈훈
김세
따스
빈티지
끓이
건축가
서너
OS
엘리자
갈아타
얼리
코엑스
##부진
되새
불명
빅뱅
포즈
벼슬
쉬워서
왕비
##여대
##바겐
남경
찾아갔
미생물
왕성
커브
저해
완충
뮤지션
이질
##다르
162
다정
SC
##체스터
화랑
광대
전단
기질
씌우
보인다고
##스틴
##GA
연탄
육지
버텨
버림
태백
고법
끊기
연준
미혼
빌라
남도
일어서
날림
장애인
내심
목적지
흉기
유서
맛볼
##도르
##활약
기다릴
강정호
##바퀴
KD
##포터
쓰인다
휘말
##op
##ㅇㄴ
재심
SD
떨리
딸래미
울트라
은하
조선업
오키나와
BBC
짜릿
강대
느껴져요
끝났
배움
두드리
위아
세례
반바지
팽창
해병대
화끈
원산지
리프
메카
##일드
데스
ㅜㅜㅜ
##수리
펜슬
살걸
물리치
모처럼
본토
대의원
통신망
##AE
레시
더라구
혈당
살아갈
확진
분말
속초
르네상스
피드
음주운전
찬바람
이왕
꺼리
##순환
맹활약
리베
돌려주
##라미
폭스바겐
쪼금
아메리
어긋나
이화여대
관철
담아
여진
고분
느려서
더듬
치른다
잡음
관하
스푼
만세
키운
버려야
무분
만난다
128
미숙
##때로
접어
묶여
순례
##테르
현대제철
질타
거려서
비린
오븐
전세금
살펴볼
가솔
요트
성금
##튿날
물기
보선
앞부분
LPGA
통사
김우
사사
두터
콜롬
차갑
소시
중추
카트
단풍
중증
요란
치료법
이튿날
공평
##찌개
뒤덮
달할
웰빙
미인
미친다
우승자
서강
요시
는커녕
묵묵히
여분
보상금
생략
어떤지
##EC
자민
로라
명실
경마
합창단
거센
아버님
상설
출품
파헤
브레
소홀히
운수
세팅
##베트
화산
외교관
정현
대란
온전히
구직자
조종사
입상
유공자
작물
깊숙이
펜스
과감히
스테이트
##틀랜드
귀한
예뻤
보일러
선뜻
한상
06
공무
몰려들
공유기
후계자
영예
고로
183
디즈니
의정
맡겼
슈틸
1400
관악
스티브
비법
슈틸리케
씻기
미지수
전경련
산불
공표
국도
한시
##학규
아울렛
올라와서
본회
당혹
샌드위치
상회
공과
호황
안무
문학상
PR
계명
매듭
캐시
취직
탁자
포위
김신
박찬호
성명서
거트
일삼
한옥
추울
어우러진
위촉
중원
미끌
##뽀송
김두
다용
MOU
더군
팍팍
##보험
미성
패했
매경
쾌락
황사
싫어
##슈타인
귀환
효자
히어로즈
우동
원숭이
새콤
수백만
인대
오찬
숭배
St
중성
바랄
즐겼
연구회
의대
와이드
기술원
신뢰도
저질렀
유목
점진
펼쳐졌
비우
내려앉
경희대
##송뽀송
달빛
104
승소
뜨거워
오뚜기
레버
물들
결여
뽀송뽀송
동남아시아
부흥
##MA
그친
상응
양사
목회
시시
택하
사당
##상수
장모
확연히
부끄럽
글쎄
대덕
자이언츠
꾀하
pc
가솔린
동명
지나갔
도우미
👍👍
환산
공사비
폼페이
침수
안티
파행
내몰
가닥
성전
파고들
변모
인출
걸레
플래시
작아
국유
특기
탐험
삼성증권
뭉쳐
비만
여타
고아
초록색
전구
떨어져요
기동
서문
##트랙
꼬마
느려
불러일으키
장자
대리석
연면적
##시대
##주군
직속
애쓰
유능
##베이스
누렸
##게임
멜로디
예견
찬사
다스리
GB
##퍼트
빼돌
초음
대리인
운동가
매스
윗부분
모로
바울
토니
해야지
계획서
독주
자처
파이낸
실수요자
로우
원점
리처
허공
흉터
세인트
해준다
밑단
홍대
반감
##맞이
요것
센트럴
매몰
바우
입니까
순방
107
표했
직위
##시계
이바지
역전승
놨는데
낙후
스펀
VIP
나아지
성장률
울림
하차
부러지
기일
배임
둬야
로드맵
지방분
사악
유언
견뎌
교내
느니
욕조
시종
빠져요
잭슨
속해
결핍
척도
일간지
숙명
제습
숨겨진
차명
##ir
경성
성품
##그릇
장부
04
쓰러지
상이
찌그
양수
찰스
##숨에
177
단숨에
영산
난다고
안목
성희롱
브로드
CGV
시조
동호회
##턴트
영수증
편향
적폐
##레일
모닝
사다리
명심
3500
##백화점
모티브
접이식
변론
니콜
실업자
##시티
##젤레스
경색
##기사
아무렇
식단
요번
사귀
핸드크림
소분
외래
치도
##소년단
반가
대내
제때
압수
슬프
퍼스트
오승환
악수
##TS
발자국
복면
##투자
지방세
##아나
김영삼
잘라서
뒷부분
쓰인
표상
아메리칸
정류장
만회
퀴즈
구급
불화
영종
##테면
##11
비오
막말
중남
수만
제왕
비염
워커
이의
다방
##렁크
라텍스
사치
꼴찌
106
못한다는
신속히
늦추
육수
승려
성급
##마르
도루
튀김
부쩍
브렉
터보
##이자
옮길
누비
기관지
몰린
약관
진다고
기획사
기수
둥글
우와
세일즈
IBK
##레인지
느껴질
라이언
손학규
##장구
역쉬
수염
이호
훔쳐
트렁크
자각
권영
##사관
도무지
발톱
잔잔
##광역
관절염
이쪽
양복
용돈
허전
버릇
여행자
추기
도왔
야말로
증서
갱신
♡♡♡
김학
##퇴직
##원지
블룸버그
##가치
수납장
눈가
무슬
아이디
##AR
타고난
##ter
우여
김은
절기
사놓
최진
144
때때로
무명
종자
##말랑
양동
창간
##타임
맞선
이강
범죄자
이정현
사라질
인지라
방탄소년단
바이올린
플랫폼
느껴집니다
흘러가
높인
극한
발랄
서두르
변질
후쿠시마
빅토
CP
박명
했어여
맞출
탁구
179
사무국
장로
방사능
피칭
불허
의구
존엄
전반기
평안
255
음란
다니엘
실종자
불타
김광현
남양주
랜드마크
포천
이장
치중
가결
마포구
물려받
쓸께
##노이
말랑말랑
차등
1973
두어
심야
둔다
망원
항복
지폐
##하니
무슬림
##바구니
무방
살린
열람
이를테면
치러진
요기
늘어놓
대면
비아
167
이니
##od
벌리
##덱스
그래두
밋밋
체인지
생겨났
비지
소소
칼날
스릴
ㅇㅁ
세션
##브릭
흉내
1981
저금리
찍힌
만한
신청자
조인
두렵
오른손
연못
##HD
스펀지
는데도
천황
##체어
##차림
AR
알로
무분별
플로리
가든
메트로
포진
추궁
##루지
코르
^^♡
##루엔
그칠
빠짐없이
##무니
##부상
수세
##곡절
##깨비
지독
조계
스미스
164
연정
##수산부
월평균
잊혀
체내
배낭
베풀
고루
맨체스터
휠체어
씁쓸
기류
##방송
무자
반하
휴게소
의존도
줄기세포
떠돌
예술인
담요
흩어져
분권
급성장
쏘나타
블랙박스
##IT
매사
야지
스톤
최재
매칭
함수
1900
마차
수축
어김없이
묘한
더해
서리
슈퍼마켓
따내
쪄서
무너져
우여곡절
최태
복선
##무진
불어
계발
좁쌀
신안
개수
조수
청각
비방
번짐
웃돌
이뤄져
부지런히
이양
대졸
낱개
보호법
악순환
1978
견지
고운
수조
의료비
똑바로
회식
턱없이
산맥
##동아
미백
성모
속내
안도
최경환
리니
과학부
해커
아바
159
사절
##쿠버
인디언
민관
융자
균열
김효
일회용
더워서
당당히
층간
독보
손수건
광물
이점
이은
어우러져
알아차
그랑
번식
내쉬
난이도
놨어요
아주머니
서인
필립스
터져서
독성
올린다
거장
거스
감리
보호자
##투수
1100
##12
검열
외투
##안전
날카롭
김관
무승부
추대
세계인
109
몸짓
##보라
충주
블라디
롯데월드
드래곤
챌린지
서귀
다녀온
위즈
대열
독립성
쓸쓸
복종
달아나
마블
불거지
결재
이따
초조
잠금
전전
내려다보
기뻐하
##정동
의구심
마음속
##오카
미르
엣지
브로커
해양수산부
##AS
워너
닛산
외환은행
아닌가요
무진
눌렀
선발투수
##----
웍스
꺼라
지녔
구스
다카
박태환
법상
한양대
군중
불로
소동
천정
최상위
사회학
비장
스쳐
##스포
08
급진
니즈
노원
대마
빳빳
멸종
정사
보너스
로열
문양
덩달
토목
즉위
수용자
##앤젤레스
로스앤젤레스
저격
씨름
최영
##기스
안전사고
감세
##퉁이
파스타
초라
중장
기내
365
블럭
졸라
지쳐
찬양
멘토링
서운
##무라
엄두
##TO
어민
잡티
키트
너스
알갱이
위태
서귀포
유화
하룻
아치
강간
하소연
배송굿
1975
우파
우즈베
다중
삼촌
컨셉
서해안
불사
레지
번개
지청
##라기
친밀
부딪히
##누스
##중근
추기경
브래
##왜란
라이너
임진왜란
제지
밀레
깨달음
메우
컬링
피어싱
공휴
지네
문제없
타락
해낼
출처
이루어질
보성
박기
무난히
##고래
간첩
이동국
행적
나시
동인
조롱
관직
##바탕
##이나
다다
괜찬아요
배열
##갈비
전광
박준
일주
화답
##프스
동거
자본금
불문
미시
세리
리아
공보
페널티
피드백
내뱉
오션
흡족
##니스탄
##ㅈㄱ
물자
재검
성지
밀어내
유역
-)
항일
올인원
속출
182
약사
자랐
선제골
닫히
은밀
리처드
전망대
##혜진
들어갑니다
분홍색
CF
월화
내려왔
흐트
떠올렸
변혁
불려
궁전
왔으며
촌스럽
연달
수박
키친
평판
프랭
향토
##리시
다이어리
눈동자
쫓아
갖가지
주범
##다나
반포
굳건
소양
후면
##걸레
기밀
깜빡
돌아서
전라도
내복
거미
아로
아비
##라노
탈피
삼각대
이효
끝냈
몬스터
정적
보낸다
김남
이윽
제네시스
선체
위헌
이건희
행정관
아이러
놓이
##두고
특산물
모노
콤플렉스
인견
교육비
극우
고추장
이어받
매달려
죽여
##ew
대지진
드래프트
중상
아이라이너
hd
도로공사
분식
브이
자연환경
가열
늑대
그랜
베일
부통령
증강
망가지
##인물
수돗
킬로미터
신주
유재석
KEB
넘어갔
사채
승패
##나갔
지부장
손발
이윽고
열연
은메달
안착
172
대전시
##장치
송영
나을
남대
다졌
할려구요
스테이크
##루엔자
##키스
꼼짝
카스
구애
전화기
긴축
장동
이범
출원
인양
일축
채웠
팔려
군청
헬로
##RA
가야
일어난다
숙성
인플루엔자
활동가
위계
첫해
표절
찍혀
스코틀랜드
공휴일
악몽
우러
전할
종족
수성구
생체
##버려
지로
더럽
하룻밤
숙이
##곡동
좁혀
##불호
면치
회차
포격
돌아간
강타
모셔
##um
##oc
어째
김태균
뾰루지
앞세운
##릴라
양양
누드
골목길
결말
다룰
자루
호불호
낮췄
코카
토마스
반장
끈질
끌어들이
영등포
국공
주된
이국
빗물
휘둘
프랑크
1974
저것
교토
용감
##무소
리라는
엉성
두고
흐뭇
통틀
보행자
점거
##암동
끌어안
쇠퇴
두고두고
유병
IBM
1948
세워진
마일리
고를
개업
루스
웅장
##래요
과대
테라스
중얼
##un
##마을
석류
에디션
##세우
##통일
혼잡
찌르
골문
비위
바랐
비참
꼼수
당첨자
고질
착취
바닷물
책자
임창
가부
산수
만장
다발
생명력
##투맨
혹독
롤러
도피
연장선
부시장
대관
기력
서대문
이규
##모직
추워서
##용수
##슬러
불쌍
조사단
자요
제일모직
고충
##결승
면밀히
답사
라벤더
남동생
이계
우측
반론
볼펜
줄어든다
카테
기념일
온난
소개서
슈퍼스타
맹점
부산대
TP
옆구리
치켜
석면
팀원
복부
휘두르
여객선
AS
맨투맨
발동
바리
타이거즈
중남미
출혈
배양
이오
유흥
미야
샤오미
쓰러져
구한
덧붙여
콘퍼런스
113
취득세
철제
몰라요
속이
전지훈련
견본
테이
낙하산
물감
##르도
살릴
전속
심경
알선
새겨진
존속
청담
올라간다
널널
내성
신다면
상세히
휴업
1972
750
처하
견학
폭우
집사
알릴
소방관
##야구
신의
이분
큐빅
승강장
엎드
거지
##뜨릴
영남대
들려왔
비주얼
헤아
유라
섀도
간소
성수기
의거
단자
알바
들어야
공교육
토트
##체인
원더
제스
유망주
걸러
참배
발발
야드
불출마
경쾌
다릅니다
맞벌이
박인비
빌미
다물
통학
대위
플로리다
김미
##45
##악산
필지
이관
추론
드려
프로그래
울진
윤석민
꾸리
박혀
뒤꿈치
관리비
나아갈
연합군
스트레칭
##민턴
장대
퍼트
##슬라
풍미
주황
내준
##가짐
편백
아이파크
화웨이
09
베이직
##우치
##짜기
벌어들
천시
차근
포스코건설
바램
침공
엇갈리
##렉터
부추기
리어
문신
차인
취항
시군
173
구르
##서스
구강
가파른
생리대
시니어
이긴
맥도
##하라
토막
슬퍼
계약금
하부
철새
집약
수돗물
고흥
##ation
가락
테크놀
소각
막막
바래요
대의
지하수
처우
##ver
스러우
심부
포항시
입장권
양현종
기색
들으며
베어스
소치
쟁이
거들
정연
후보지
자판
봉건
폴라
##정식
이글
산전
불씨
##행사
단결
대미
절충
부디
응급실
당위
조합장
제작비
이민자
##그레
지구촌
무작정
동물원
다녀오
##언스
##내려
우루
쌓았
원년
똑딱
호의
##마킹
##틀리
달려들
다변
개당
손녀
마일리지
마오
접히
노래방
벤치마킹
우즈베키스탄
어이없
##슬리
ㅇㄱ
수사관
강서구
뮌헨
영도
뒤흔
나타낸다
범퍼
쓸데
수녀
개신
한약
무더기
##광역시
로이터
따가
176
울렸
미수
입당
고품질
착륙
아랑
관리법
강철
시뮬레이션
인방
달해
경합
일렉
병합
부턴
부상자
##어치
117
까만
모건
교포
##메이
급급
심신
DS
서거
김부
역류
피아니스트
지치
더러워
제작자
연예계
##ID
납작
경직
##em
자락
단체전
재일
기름기
아날
안치
후방
다는데
경제성장
기준치
커져
##올라
클리닉
위아래
사우스
##터스
걸으면
어찌나
힘든데
패치
갈아탔
어서다
숙련
개구리
방황
##기름
박희
청도
터질
당정
하마
##BA
쓰임
퇴원
염소
환매
위례
찍히
잡스
정대
유니크
치부
덮개
명장
구직
돌려받
##사태
손꼽히
공명
##임자
DMZ
배드민턴
퍼부
아영
까다롭
##년기
간결
직책
앞바다
외로움
최하
##TI
마땅히
이빨
알람
그려진
##공화
영양소
성기
또렷
씌워
위스키
끝없이
벗기
신전
##연구원
##시즘
교구
##현동
어필
아레나
상국
에디
최형
전통문화
돌려서
완제품
중전
중앙당
바깥쪽
직종
서한
씨티
판소리
빛깔
쇼크
릴레이
장이
실러
1976
교량
농심
고마움
줘도
지낼
획기적으로
알로에
일차
산책로
뭘까
내실
복판
##악단
운전사
정중
걸이
비료
관광공사
초안
겸비
127
골절
물걸레
쁩니당
통운
##리학
계약직
KDB
다량
버드
유착
줄려고
플라자
문화재청
나폴레
맞섰
카를
충만
##배송
어기
지켜본
병실
##보내
##실히
118
갈아입
탈세
넘길
당도
윤상
뱅킹
놀랄
##창기
현관문
몸집
압구
vs
흑백
는군요
##코인
어울립니다
들판
내건
정글
획정
##보이
으니깐
관례
지중해
방화
두드러지
성적표
이이
##터치
개동
화소
##바르
166
헤드셋
사대
해독
교단
영농
주심
##쿠르
경전철
호칭
1968
이선
일류
금기
반항
형국
달아났
루터
해발
신정
벨벳
자산관리
피로감
스카프
수출액
코스트
페리
설날
초음파
가려움
산모
예감
##지도
김문수
그리움
퍼즐
##저트
상황실
##LL
？？
크레인
머금
요요
봉제
##레스테
다문화
##영수
취업률
##지엄
스포츠동아
태아
심포지엄
유방암
용인시
이병헌
말미암
##두루
권총
성화
정운
꽁꽁
바겐
장신
지오
데님
연습장
마그네
핸들링
적법
157
갖춰야
초연
추출물
평형
식수
투신
발렌
싱크대
거취
보고회
##미디어
총파
밑바닥
##게이션
내비게이션
고마운
라이온즈
연기력
성직자
하늘색
건넨
나폴레옹
##날두
비트코인
필사
검장
해저
호날두
116
상수도
포화
도울
앞당겨
사극
얽힌
##교도
총파업
본문
##레마
이재명
해내
친해
바꿔서
매달리
흡착
여주인
ELS
게여
##밸리
천문학
생김
하필
트리트
리틀
볼려구요
야스
준결승
갈라지
어워드
티베트
아사히
농경
122
해수부
총독
##인다는
해했
##플릭스
정액
수억
제트
##제당
넷플릭스
당나라
블록체인
학창
시댁
손등
스텝
음악가
##베리아
자연히
듭니당
제약사
토퍼
랜덤
베타
사뭇
택한
화백
275
화순
타제품
MBA
지나간
두루두루
살포
자작
정차
귀가
##젠테이션
아프가
주총
캐피
제일제당
용접
지킴
발전기
##리그
플라톤
동월
##살렘
330
어설
페루
유리창
콜레스테
무너진
북아
커머스
아낌
전폭
##루살렘
콜레스테롤
##ㄷㄴ
제철소
교제
담담
날라
블랙리스트
촉각
위함
전염병
겨루
증식
##가정
공황
패브릭
꺼도
살펴본
벗어났
끈끈
몸값
세관
양당
막힌
##은편
여겨졌
장마철
와일드
송구
공관
상담원
나인
##정사
뒤처
딜러
##부족
유니버
윤종
인사말
산화
연구실
AM
돌출
뒤섞
초창기
피했
원터치
하우
엑소
고소득
으뜸
울릉도
다가온
삼척
금상
##저곳
환한
커진다
폐막
여관
이곳저곳
양궁
탐욕
숟가락
처했
##st
##ㄴㅇㄹ
벌크
##린다고
신경전
##엘라
메밀
영위
앞치마
춘추
김도
쐐기
밀림
보령
저성장
GE
당론
아프가니스탄
품위
사서
투여
검사장
대명사
라떼
로울
그쳐
펌핑
이소
불복
서남
##속기
자의
밀러
##자락
네이처
##데기
입성
MR
아슬
다쳤
유축
터전
돌파구
다이소
록스
케이블카
유배
누이
의왕
##스런
OK
안희정
건대
##중국
방망이
외과
##불리
경정
면도기
174
NG
##아보
어촌
꾸민
조연
준우
국제기구
비평가
알콜
터무니
07
한성
손아
156
기쁜
당권
##방향
경이
유례
깨져
커리
경제학자
소생
북경
구미시
디바
##플러
PGA
정찰
##쿠스
연행
퇴직금
증기
근린
김제
넘어갈
망설임
그래프
위기감
SDI
사주
경상북도
남방
##넘기
취임식
무소
아기자기
박민
잠겨
미쳐
치닫
장안
콜롬비아
디저트
##국장
관용
동선
참신
어떡
약탈
메커
적십자
132
데이터베이스
증축
정용
숱한
물러서
벼랑
성산
##방식
리오
줄인
청나라
해남
##차근
##ce
휴전
달랑
습격
단조
영덕
파이낸셜
1940
헤르
갈망
부드러움
했어야
차근차근
천막
시식
##라이나
##하마
의향
토요
간행
작사
실무자
고마워요
올라간
편법
181
저력
초미
자행
살아왔
쇼트트랙
이래서
##세데스
메르세데스
블러
청라
배부
부녀
바라볼
캐피털
발라야
직격
그쪽
다우니
노사정
결핵
##케미
혼돈
내버려
노조원
진행자
고령자
의외로
키움
김소
복직
하사
뒤편
##우트
귀띔
항생
황토
캐피탈
만능
자서
의아
심도
골라서
객석
분향
미녀
폐해
도깨비
내려온
망각
김보
번들거리
언뜻
핑장
현행법
매기
수락
##꼭지
편해졌
터트
꾸몄
간절히
여운
스파크
스니
천명
업주
태종
부탁드
거주자
잡아당
왕후
동두
연주회
멸치
##청사
절개
존스
현저히
나열
건너가
남경필
##제리
근래
키엘
쭈욱
난관
씻겨
양도세
고영
카자
##공화국
장외
진흙
하프
꼭대기
화법
완주
공교
메커니즘
원사
기자재
틈틈
휴가철
##영장
미스터리
비시
무르
뽐냈
예루살렘
복식
##토스
홍명
독감
전가
잔소리
전해진다
워크아웃
그려져
종신
오른발
전보
정세균
320
연차
디아
##도록
갈릴
신세계백화점
남학생
1971
줄여야
##bs
공언
젊음
충실하
현대그룹
153
##노소
명실상부
유연제
종양
겨드
절친
무서워
실외
사용료
재검토
손익
잃어버려서
마운
반대편
수력
간다고
##돋움
원치
비웃
일석
발돋움
고모
정상급
실기
공허
들뜨
싸웠
일보
위배
선구
ㅇㅈ
시마
경청
빈틈
다문화가정
##터카
낙선
용사
저택
지주사
중소기업청
불법행위
##학년
##리나
다가올
김해시
들린다
개점
였음
마주치
이청용
예정자
종북
지휘관
열대
완벽히
##og
살살
태그
산다는
렌터카
저탄
파기
##기술
1977
두르
투성이
끌려가
리포트
동학
백작
저변
##탱크
지울
##상가
UAE
1700
식별
보온성
의리
영천
다림질
안타까움
소란
규율
대표자
동급
못한다면
끌어올렸
어시스트
괴롭히
흘러나오
이랜드
들어도
세세
퇴행
프라임
차콜
##기부
리튬
레시피
국화
통이
##준호
부럽
원본
눈부신
소고기
안테
사고방식
들어온다
MD
풍토
교통안전
초빙
##관리위원회
수도원
선거관리위원회
수표
종식
맞은편
##그마
BB
##케미칼
*^^
매혹
비주
떠안
한없이
단의
광해
옐로우
강소
쨍하
황교
제물
전립
오타
건조대
건국대
넘버
배관
재물
유자
앞코
방사성
아리스
교차로
김석
명나라
채팅
멀리서
더군다나
문화원
아날로그
김시
래퍼
피츠
프로이트
결점
유소년
실형
피싱
퍼졌
다승
투자가
휴먼
거라
##시험
다기
동래
##나가
일품
신명
악세
##버거
다져
제각각
첨예
공범
팔뚝
무지개
대내외
그지
심해요
질러
누웠
아이러니
결별
161
회의장
나눠서
원해서
바뀐다
능선
종영
화이팅
126
부산항
요리사
인민공화국
내린다
앙상
##에미
되돌려
등장인물
채운
##어서
목장
따라잡
배타
성대
ㅇㄷ
강박
접점
##여리
소수자
북적
인파
##전기
원도
값어치
컨설턴트
##작물
선인
한결같이
야쿠
홍익
번번
연신
체하
마포
끝낸
주지사
운하
가왕
기체
음료수
거시
역부족
판례
스팸
사라진다
com
조개
빼내
뽑혔
##수아
여중
들였
중력
는구나
신데
경복
인척
국익
부딪치
##로그램
마취
물의
나들이
쪼이
죽였
전량
투스
향유
논하
무이자
터득
민병
방콕
사슴
##사랑
고함
김홍
##금융
LIG
패전
플라워
계류
따끔
대출금
거려요
녹여
계수
태조
에버랜드
거머쥐
마누
재협
황태
따를
엘리자베스
여리여리
요미
쳐다
리티
##시원
보인다는
힘차
인허가
미네랄
연두
마린
평정
양지
어쩐
멈췄
김범
선상
독거
효용
더라구여
가릴
극동
탈환
금산
일부분
##과이
기보
계획안
부가가치
YG
스키니
반기문
남녀노소
자카
할께
미비
미련
좌측
획일
소화기
직급
##코스
실리콘밸리
동대
흐리
##부림
나타낸
민간인
남아프리카
다용도
기우
자력
갑상
임차인
막론
단면
##버렸
드름
BN
왼발
진해서
콩쿠르
굴곡
정오
말린
김영란
장보
성황
찔러
양천
탐지
때론
가르쳤
조직력
아늑
재촉
152
550
박동
놔야
웨이브
조형물
안양시
외우
니체
착안
처사
해상도
반가운
대림산업
1969
감량
파르
노비
재주
##ul
혼다
성악
신항
유영
애먹
붙잡혔
가리킨다
벙커
퍼팅
방산
놓였
뒤져
생식
불릴
마음가짐
굵직
기승
133
근심
거뜬
수십억
선후
건만
136
골밑
능가
우리은행
이한
식초
유적지
이근
야수
일탈
##지우
편익
굶주
콤비
서강대
정인
땅콩
드나들
기본법
미약
레닌
넘김
시크릿
생겨난
계량
퇴치
아랍에미
아랍에미리트
찌꺼
수컷
힘겹
추월
동백
타올
연수원
리라고
어지럽
##카스
4500
드루
낱말
파출
봉화
놓쳤
심문
쫓기
차가
미성년
##룽지
조음
악세사리
하이라이트
요정
마쓰
밀어
옷차림
주선
알아볼
지으며
##밴드
경제력
찰랑
보탰
영유
##ap
시사회
파트너십
137
단언
통폐
##ri
##미리
개신교
경질
가디건
정석
사나
섭외
찌꺼기
스티로
냉면
애호
진수
##팽이
통기
매끄러
넥타이
##거진
학자금
출사
하버드대
의기
어버이날
상여금
후세
장년층
위크
고뇌
부서지
보드랍
소라
##펙트
화성시
안테나
트윈스
폐수
수순
익혀
몰아넣
웃도
죄책
마자
EP
라오스
작업복
해줘
내국
지지부진
지킨
달력
##차기
구독
수천만
다녀야
설계사
즐거워
페르시아
수심
증명서
챙길
124
신민
비엔날레
로프
늦춰
갈래
항생제
파병
쿠쿠
아지
조광
이산가족
인분
드레
##사전
미라
황교안
춤추
##크라테스
담뱃
불고기
블리
금새
인선
##아주
죄인
암기
##십니다
##아먹
북서
황정
리가
달째
##DA
거느리
대도
##미르
시합
자아내
플루
노부
물씬
갑작스럽
##체육
백두산
강기
1965
2025
실마리
장중
154
됐었
회귀
석학
식용
자초
이희
박힌
으셔서
##이어티
폴크스
자갈
침범
얻어
서울역
유투
##스피
142
첨가물
##제이
##아시아
올드
121
합친
교묘
카자흐
등교
집요
구명
출연진
나와야
배심
공습
할껄
연회
차마
테크놀로지
내야
##만금
보탬
##징계
외롭
참여연대
자손
단거리
요지
가로수
밀어붙이
##치아
##ㅇㄹ
##수엘라
138
원자로
203
그랑프리
##전히
흐른
두근
##토토
선언문
AC
충원
죽인
재협상
성북
알린
라미
갈증
컴팩트
살균제
천연가스
나들
평년
최형우
노령
수레
물놀이
스터디
완만
통폐합
선가
찜질
난항
과격
페어링
연해
치곤
정해져
현물
수저
운운
아이유
인먼
회사원
내시경
군사력
원한다면
선율
양재
##세기
1962
드러낸다
관상
타이머
파열
내려서
안산시
집무실
가져갔
KAIST
조미
만년
##니더
라마
모세
판촉
배워야
비주류
붙들
열중
희소
PM
장바구니
담아내
매너
세법
평준
양손
백업
생사
즐비
##공항공사
주거지
초교
법무법인
선입
쓰러
풀무원
패소
자구
연료전지
저탄소
1963
이공
나들목
움켜
통틀어
##착오
##군데
오크
지지대
청동
감소세
학파
##듭니다
베네수엘라
그제야
콜로
영조
모여들
##데리
최대치
시행착오
요코
##제국
대공
139
더러운
ssd
잊어버리
캐슬
삼가
신상품
굴러가
러블리
순매도
검색어
직격탄
나카
성장기
부르주
머스크
남극
##태용
원재
햄버거
청자
애리
조르
궁중
급속도
##퓰리즘
포퓰리즘
IOC
행방
비쳐
수족
문성
꺼려
명백히
사역
개표
피카
소시지
장차
잔혹
몸담
과거사
친선
스트라이크
세습
카피
기이
먹였
실험실
브레인
저명
두들
자백
버핏
능숙
애완
사수
##러브
새만금
생동
대령
준비물
경륜
번거롭
뛰어든
DC
형법
고공
다케
초선
수식어
메타
소행
스톡
스티로폼
지만은
출입구
낙인
들릴
했어도
답한
아니하
도보
공해
해인
냄새나
함성
완승
다이슨
철원
끊김
아찔
패러디
결렬
모텔
##뿌리
##로로
강풍
선천
바야
칸트
넘어설
놀라움
암컷
스트리트
껴안
나아요
로지텍
학비
배꼽
골짜기
##거스
*^^*
수용소
슬라이더
이철
푸르지오
날로
버틸
간간
지닌다
쪽지
기자단
채무자
셔틀
MP
신사업
페트
재량
##일치
잡아내
##ak
선의
누룽지
삼키
세간
다원
맞닿
성벽
독하
탤런트
발현
커리어
노점
여종
깡패
변이
##가죽
##리에
목욕탕
말없이
시달렸
중앙선
연골
통도
모조리
외지
체면
경상도
148
시향
인피
##푸스
인질
땅값
걸어도
어벤
실렸
컨퍼런스
날까
권오
책무
기울여야
담그
##지않
무모
식판
개도
반군
왔었
굴복
다급
650
원재료
깃털
좌완
구민
IPTV
예결
##보증
장세
난무
품안
열세
좁히
경로당
171
구본
정은
밤중
행안
호화
ㅇㅅ
건너편
##가을
모태
밴쿠버
##덕션
CO
롯데호텔
예리
마카
요하
식욕
임시회
반죽
##BM
역도
켈리
##바바
도망가
스텔
외교통
낮춘
거래처
찌푸
안전망
싸울
주점
##CI
돌발
수화
1967
세라믹
나이지
나이지리아
연희
생신
선거인
송환
돌린
문화예술
강령
체구
난다는
##겨서
휩싸였
##하키
송치
자급
참담
스탈린
요걸
우크라
가까스로
군데군데
접경
두각
실측
파나
베토
사들이
열등
소다
뿌렸
단군
밀렸
수협
주원
돌이켜
나지
##AC
폐암
개년
목표치
공권력
물동
체어
체크카드
포도주
다퉈
발광
원상
잡아먹
단련
복리
서예
소관
최성
조그마
##영화
나옴
생필
몰아주
나경
빌린
소비량
울주군
평평
우라늄
구심
근력
저수지
때렸
알록
호호
생필품
진료비
질량
##꺼풀
부류
표류
미역
천체
전매
사고력
##치소
시승
신촌
##천리
##버린
생태계
슬라
힘써
##..
싫어하
제소
한대
영롱
나간다는
캐리
강등
방패
틀어
열렬
트릿
승화
히말라
자크
LPG
서늘
백색
중앙지
후원자
##진구
스카우트
배당금
일터
##뉴스
신동빈
부호
사정관
용산구
건드리
급부상
일과
안전성
줄거리
SF
이글스
케네
가벼우
교통망
퍼플
굴욕
라던
143
부제
질책
자가
전업
결속
수사대
비축
황우
범하
나미
밑위
성형외과
부끄러운
집사람
골드만
이단
자긍
모릅니다
변동성
##천동
거래법
은유
퓨전
바닐라
으로선
개회
몸부림
청송
재가
하기스
채울
토트넘
환전
으려고요
컸으면
##다운
146
토너먼트
##ㄷㅂ
보유자
테슬라
지망
박석
베토벤
네모
창녕
히말라야
##르드
수작
가두
현대건설
죄책감
돌아다
어법
잠식
느껴져서
전자파
주임
안상수
연평도
청년층
준다면
봄철
초이스
##즈음
장판
산부인
산부인과
논증
##일러
유태
활주
번복
후예
망원경
고갈
기록물
국과
스트로
출입문
##ia
모음
아이스하키
코노
불이
나물
MW
가했
실화
삼성생명
뽑아내
소리쳤
무당
필두
초유
담당관
PS
기강
잘려
흔들렸
찾아다니
부지사
인권위
달성군
깨졌
저음
카톡
149
놨다
가디언
꼭지
달팽이
평온
왔으나
129
짓밟
파탄
하비
##로웠
카테고리
궁궐
따돌리
솔솔
##무장
라임
불면
래미안
하루빨리
기념품
덕목
진보신
하이트
강대국
자긍심
일컬
##art
##TN
오줌
##잔치
레미
기탁
일전
동유럽
사슬
아까워
언행
귀여움
이문
백종
경작
##지먼트
루프
펀딩
매니지먼트
169
쓰리
닭고기
결사
전문직
혼동
제반
백혈
뒷모습
조력
예용
토착
134
절묘
농작물
반공
얼핏
복싱
떠난다
나뭇가지
느긋
스치
멤버십
리츠
기념사업
액티브
김규
선대위
전임자
양승
조직원
사업체
유학생
꽃잎
졌으며
중도금
전인
정할
높낮
숙원
외계
꿰뚫
헤어지
##달록
좋아했
순진
후생
와야
눌리
괜찬은
이따금
뇌졸
여겨진다
온수
찌그러져
준우승
최저치
낭독
전과
알록달록
디렉터
트렌디
티저
섬기
그래서인지
태화
한잔
겸용
예기
재연
속상하
보디
슴다
빠져들
수군
분출
카자흐스탄
낙태
우승컵
유시
##파이어
파편
들썩
수뇌
물러난
앞머리
현대사
방향제
##태영
포식
의례
Ch
너비
기만
불의
까마
리버풀
시네마
##이라
인천항
##경찰
갈지
높낮이
트라이
화장지
몸싸움
홍조
곡성
노렸
맡길
직행
소용돌이
라곤
서경
MM
홀더
찮아
In
스모
말문
프로야구
아랑곳
설령
첩보
신예
몸살
포대
청순
덜한
숨쉬
점쳐
닥치
청사진
NS
남서
삼성동
어쩌다
옥스
##하우스
사이언스
지라
신일
케네디
구태
##호영
채권자
번번이
시판
##장고
보험업
##est
간염
다친
정치가
151
순천시
노이즈
아리스토
빈약
진위
조급
전립선
빈민
산후
도배
호위
쓰러졌
수변
미셸
갑작스런
이천
##클린
용적
까칠
순면
이변
살렸
찬란
멀티미디어
현충
##예금
시드니
로얄
덧신
##관리본부
승승
촬영장
스릴러
레바
절하
트루
얽매
무튼
펼쳐질
에드워드
애리조
게임즈
반등
헌혈
대청
폭설
동이
풀어
헤쳐
선방
해적
##댕이
지휘봉
띄우
각성
모차
어수
서부터
골격
서슴
호프
인피니
기대치
글라스
싸워
##맹이
고등어
박자
거처
냉방
SOC
선우
##까요
가뜩
직거래
##식물
JY
여과기
##버섯
##마침
대작
비약
##프로
마스
넷마
##사이즈
안토
당직자
제니
교인
147
굵기
아하
클립
요컨대
##예산
뇌졸중
가부장
##로이드
어처
재외
BC
영성
##보레
가창
불거졌
무궁화
1946
질병관리본부
코랄
나트
장정
넷마블
욬ㅋㅋ
횡포
##폭력
링컨
호출
과반수
터리
트림
가면
무공
비데
##나절
실내화
1961
달인
성과급
##오른
관전
사야
스케치
영암
가뜩이나
알아내
유람
##if
하노이
달릴
발맞
얽혀
학술지
필링
마나
딜레마
노린
##오피스
가상현실
급수
도자기
처리장
PP
수교
김성근
달려갔
조동
여주인공
망하
산란
때마침
EC
초상화
##hd
최민
알렉산드
고단
레이싱
들려오
선취
스테이
군부대
산업체
##리히
승승장구
AD
어떤가
두터운
암흑
정전기
떨어진다는
두통
연립
두리
보증서
초원
성우
입장료
어땠
빠진다
에티
항아리
끼친
아드
갖출
변증
##축구연맹
군림
송료
패킹
1964
해군기지
성도
가장자리
다이빙
끼쳤
##냉장고
특목
##사상
칠곡
동독
판다
##케어
##무사
어벤져
레전
슬슬
인승
척결
##네이
통한다
한화그룹
박한
장화
cj
볼려고
재화
현주
평점
함축
접어든
북어
전셋
밤낮
ᆢㄷ
술자리
바그
올바르
싸늘
곁들여
한단
분장
오디
BS
이연
어야지
가다듬
스튜어
맛없
##TC
전자레인지
TK
##득이
역력
차이나
신대
은평
풀렸
배틀
주의보
조윤
깨어나
캐논
귀속
부설
##번스
거니와
펴낸
##지원
세워야
수부
##바라기
남해안
거룩
프레젠테이션
게을
변할
배트
최전
드려야
젠더
익산
보안법
신분증
법대
세이프
박승
##의지
그리스도교
해본다
객관적으로
이라고
낮출
치료비
버금
캔버스
써왔
문안
박스오피스
청하
##혁명
임대차
바흐
타개
윤성
##폭풍
##아슬
슈트
현저
엄격히
##전트
속삭
몰랐다
계양
아슬아슬
##아떨
모여서
좋아할
구운
##다드
바스락
장단점
스위트
생존자
통행료
##통화
수양
뒤따라
봄날
순종
감금
신병
선봉
관사
추진력
정몽준
오마이
섹션
디오
김종인
맡긴
건드
내과
제품군
##수원
관세청
합병증
고취
알리바바
분향소
어려워요
이름값
##저래
일궈
참패
심재
비워
박보
투사
석상
뽑히
##오드
다이노스
라구
##and
솟아
##수단
외무성
견과
무의식
어벤져스
김치냉장고
상경
글리
요구르트
141
##회계
수개
여친
장흥
산문
보잉
고강
루머
심기
스키장
다산
소서
##사키
앞면
##휴가
인민군
경협
뽀로로
##취업
기공
내추
샀으면
운전기사
깨우
##ER
레전드
려나
오라
무릅
국제선
평택시
월등히
트인
만연
오르내리
진솔
찜찜
집게
전입
우두
여객기
뜨거웠
개연
국보
군정
자명
맴돌
신기록
요미우리
활주로
퍼스
문어
영국인
마흔
가나
제너
학교장
길목
석유공사
부적합
영월
튀어나오
고국
모나
##슬링
##더미
무신
##더니즘
총격
다녀도
유목민
희석
##막염
섭섭
어부
저냥
펜션
##장면
가파르
튀어나온
소비재
도가
##둘기
빌보드
권력자
서북
해동
물동량
YTN
판매점
야만
기형
석권
380
넘나들
KS
찢어져서
모차르트
민법
##문화재
소나
연세
관영
##좋아요
CM
주립
만장일치
근사
미덕
성리학
초딩
##선거
빨려
웃기
버지
악의
콩나물
1949
천안시
숙여
합시다
##중국해
##산동
대표작
예정일
애틋
나이스
수전
데려가
면은
새로이
지켜볼
던질
따른다
어울림
내추럴
고선
##텔레스
알찬
헤딩
법치
춘천시
관대
하자
st
메르켈
돋보인다
검찰청
떨쳐
라지만
사업주
국문
표지판
한림
스타일리시
경의
려는데
경주시
증여세
통용
펼쳐져
국립대
로직
사교
비키
아까워서
드신
다뤘
##ㅅㄱ
슬쩍
##사르
북유럽
장도
한국노총
다이얼
형벌
고온
방조
푸석
아리스토텔레스
화물차
볼링
주택가
시베리아
우왕
사투리
더해져
크라이
##코니
변함없
뚫려
해바라기
득표율
모른다고
선로
동일시
외야수
멈춘
멜론
출격
NLL
치사
적중
쳐서
휘청
활동비
어처구니
아몬드
##기념
블랑
태연
청양
특약
모의고사
섀도우
게으
선후배
경악
풍광
판매처
별반
빨갛
자서전
귀결
무고
인수위
오름세
매료
강수량
참고인
자그마
전라남도
각본
속담
아서요
빼앗기
틈틈이
화전
소름
공석
케미
올려놓
돋보였
허정
나돌
망고
##태평
스테이션
헌정
##교환
독재자
문정
게이밍
##ea
전쟁터
할애
오리온스
스포츠토토
레코드
대응책
사포
##지방
급제
구내
##지수
동자
and
편중
장내
낙마
요르
권했
비벼
지배력
안식
퍼펙트
후폭풍
걸까요
개각
내려다
반쪽
xs
연꽃
러시
스케이트
비린내
구출
용자
북동
진척
틀림없이
1910
##셔야
사교육비
빅토리아
저울
똑딱이
모친
경비원
갖춰져
줄여서
독수리
맨발
총동원
선주
확고히
중앙일보
좌식
허니
앞날
금색
온다고
목도리
##케이
금성
올려서
보병
애견
1966
NGO
인덱스
까먹
합니까
저거
바오
##래프트
잠그
구약
매화
패한
대웅
교향곡
김호
자막
##보송
애도
거주지
스니커
유창
시애
찰나
##블러
UE
##김치
하여
참관
##폐물
밑돌
동맥
강압
합하
수서
해야죠
##드기
렉스
보송보송
낙엽
전문지
##레스트
압류
노자
외주
반증
##우병
축산물
이우
교육장
돌아간다
굽히
신태용
박현
펀치
게르
흔드
##공서
##통화기금
##가와
질수록
고속철
놓친
브러
지양
데카
경진
나기
살폈
양형
국제통화기금
노련
브랜
계엄
는지라
흔치
##ip
혼선
내려졌
작업실
이월
합참
희망자
밝혀진
집어
##라마
시황
주어졌
출세
벌어져
##로이
지점장
올립니다
AF
변인
새겨져
고졸
스핀
##꾸미
검역
##버스터
초여름
빙상
폐렴
떠오른다
완수
휴양지
바이크
수역
무주택
이세돌
입힌
CES
초심
전병
조심히
유린
끼니
플러
구가
##웨이트
에이즈
편차
무의
파주시
ID
송장
수트
태생
완도
##OA
산청
오세훈
구마
프랑스어
더미
시험장
서진
번져
열전
담양
영진
모아서
불발
부러워
쿠웨이트
드라구요
여하
##게티
따라오
접착제
마법사
쇄도
라네요
조교
강서
히터
격투
까끌
밧데리
샌들
체불
퍼레이드
값진
민요
이요
파출소
팔린
염기
설렘
십상
철근
재취업
무화
아인슈타인
분경
##바늘
평했
거침없이
단합
바쳐
영지
블로킹
동맹국
틴트
내림
부검
권위주의
어드
바람막이
여단
물색
용수
다칠
소세지
쾌감
서독
황폐
쥬얼
무패
승기
^^!
질소
제네바
계약자
##주머니
페이퍼
금년
칸막이
##광석
반열
광학
##러치
노회
집결
##료품
버그
##업소
성의
어려우
##대사
코앞
기와
자카르타
II
사재
1919
리퍼
따라붙
상어
##이조
정호
걸려요
청계천
할려
딱지
##찰청
토스
대검찰청
입가
육류
포석
김영철
카누
기념행사
광채
가까웠
괜한
특목고
단발
##테리아
리안
방류
버려진
러스
철분
블록버스터
프로세서
윌슨
넥스
테일러
마카오
한심
순해요
따숩
스킬
##LPGA
야쿠르트
이터
내뿜
제명
심상정
여름휴가
비선
라운지
봉기
찾아냈
지날수록
단번에
산길
##소스
산골
애썼
동그란
이래저래
주워
후대
시럽
받들
알고
##자치단체
상소
모터스
TO
UHD
문지르
아프간
저널리즘
맹세
시애틀
어린이날
내딛
이뻤
연석
떨어집니다
우익수
중용
역습
##애나
서태
모스
강의실
배설
판결문
노폐물
탱탱
경비실
시즈
변함없이
교섭단체
태자
든가
갑상선
전환점
라이터
생강
정태
패럴
동떨
앤디
돌려도
사르
제방
훔치
렌탈
스니커즈
사무관
샌디
##이스터
가출
소크라테스
제천
으라는
끼칠
분별
온기
거물
내리막
공급자
매립지
차용
타로
애프
##과점
시화
뿌린
하리
중징계
##스태프
분기점
피워
궁합
불쑥
담사
##거워
극명
발짝
아이스박스
세차
##렁거리
업무상
싱어
동갑
코칭스태프
호두
유닛
착해요
타파
##IN
경복궁
알라
발끝
하얘
호반
벌금형
불순
1953
흔쾌
방중
기억력
고착
볼보
명인
번가
선거인단
늘어지
한답니다
부양책
낭패
아냐
반듯
숙면
브라이언
괜찬네요
작업장
매수세
미술품
구자철
괜차
131
군복
정종
네영
ML
서신
외벽
전시실
부여받
쿠팡
리프트
잇단
##브스
깔끔히
이끌어냈
빼어난
래쉬
재기
치러야
일석이조
예절
케인
넘쳐나
계셨
290
빨아들
코리안
플레
한문
베이커
무어
책임질
외할
해서인지
FM
수도권
소풍
경화
##러미
애교
지은
함경
하류
음량
장례식장
멋져요
해집니다
피츠버그
접해
총량
연유
본보기
피라미
##불퉁
천상
증원
치실
비거리
절도
찹쌀
는디
OST
황재
삼성카드
공사장
송전탑
##퉁불퉁
학장
수십만
공격력
소비세
수줍
티아
화기
코스트코
진에
스트리
국공립
연출가
~~
개도국
뒤바
신겨
마마
돼도
알고리즘
칭하
크롬
우버
울퉁불퉁
될수록
저쪽
##럭스
굴리
;;;;
논산
##ity
아반
피부염
순교
적임자
승선
몇일
영업자
격화
이루어져야
노동계
해왔
컨텐츠
토의
허점
새싹
##ㄷㅇ
짜여
희곡
상업시설
중견수
기뻤
소유주
서영
완치
현대증권
김수현
##투자증권
갈대
어서요
고배
인준
어쩐지
비둘기
경상남도
알렉산더
기고
퇴계
목격자
쓰러진
비서실
미식
식도
부르주아
엔딩
요즈음
평화통일
간략
필승
사력
입출
xx
접견
노벨상
기다려서
강민호
2400
강동구
쿨러
투병
레이디
몰아치
억류
##제표
팔걸이
스테인리스
위암
다녀서
##부패
갱년기
만루
별장
백미
오재
들어맞
부정부패
강습
아이오
훈련장
동해안
최하위
프루
##레일리아
흐려
정모
옹기
도라지
본국
재무제표
군함
막혔
국회법
##VD
##누르
교란
돌아온다
##이면
흠뻑
무라
킨텍스
다가와
공상
한바탕
##만두
발라드
정기예금
사상가
사시
##위성
물방울
가져다주
창피
이혜
쳐들
##소송
##어야
투약
균일
전동차
초석
NE
명부
수배
고이
한판
뜻깊
니켈
은색
쓴다고
공매도
기발
좌전
안구
끝판
킬러
성패
늘린
출토
불분
이토록
밸류
소이
밀린
##ㅈㅇ
조선족
쫀쫀하
부식
이동해
도스
광고주
개항
##처분
##자치부
행정자치부
굴뚝
말라서
태열
##OR
기다림
기틀
##영향평가
피해야
TEU
기선
환경영향평가
동질
축전
##러움
잠잠
영등포구
##대장
##날드
옆집
효도
뽑아
모을
일사
서식지
채찍
원어
힘껏
핸드백
로그
##트릭
번트
해부
##아르
병원장
크리스탈
알려준다
꿈틀
징용
물갈이
소공
내려야
거인
농수산물
##리스타
아자
모녀
오트
ha
믿기
요르단
가할
고덕
따낸
시차
시간대
선수촌
반출
미샤
다룬다
윤영
##스피어
과외
일거
힘주
총사
송강
인회
카디
##익스피어
셰익스피어
짝퉁
이음
콜라보
냉소
놔도
맞아떨
##ne
오카
수개월
서초동
불분명
겠죠
머지않
본보
산적
길가
신보
힘겨운
##남동
희박
퓨처
비싼데
꺼져
흐물
UEFA
감춰
빈자리
스킨케어
금정
고척
스케일
뛰쳐
플란트
##👍🏻
통찰력
드러날
황해
월화드라마
가로등
DG
자성
쭉쭉
척하
황홀
제비
잇따른
멜라
뒤집어
시외
연마
슬라이드
삐걱
사의
에세이
이방인
누우
샤이
발하
자라나
게이츠
뽀득
데모
이회
도망치
역내
##회전
수인
잠기
대치동
강호동
부천시
우전
숲길
차우
남원
만류
발화
##처리
반고
##꼬리
신중히
허덕
##ie
불우
안간
까스
콘스탄
어조
누런
모국
단아
##킨스
학군
와이번스
수목원
모라
카네
마그네슘
망가져서
옆면
처절
동시대
수뇌부
##배상
안간힘
능률
##을까
옥시
올려야
비켜
주창
CT
밝아지
무비
음색
포구
폐허
무릅쓰
속여
전기료
##ㄴㅁ
잉여
비친
실과
기간제
##로워서
##거름
볼수록
##ist
벌떡
곤혹
아크릴
데워
역사학
그림책
##들리
어수선
곡식
경계선
좌익수
들렀
운전석
종래
중개사
긴팔
재상
전자책
##ab
졸업식
마칠
남다르
멈출
퇴사
조건부
##타자
움직인다
떨림
카키색
선지
쉽사리
슈퍼맨
돌고래
오죽
전유
레바논
자형
가액
미성년자
승부수
좋아한다
밀라노
금회
이발
##ess
오스트레일리아
서툴
출입국
김신욱
##AP
시몬
카니
성실히
시들
박선
훔친
휴대용
수탁
받아들인
매쉬
젖꼭지
##그래도
당직
케이티
립식
플러그
과학고
흘린
쉐보레
외침
보이콧
배합
후크
##던트
##마음
정근
보여야
후쿠오카
WTO
구치소
매실
배역
꺾이
창가
스트라이프
라우
##틸리티
김포시
유틸리티
선입견
흔쾌히
월성
안재
전셋값
##감사
도로는
도끼
장려금
포맷
##테인
월가
무도
원리금
자태
김경수
##마니
독소
일손
정병
최현
소자
어정
고산
폭주
값싼
실생활
수목드라마
누출
정열
자유민주
전서
곱창
전등
느라고
to
성수
파리바
예식
끌리
경남은행
그리스도인
명료
##호흡
기약
마요
불러일으켰
제안서
일용
제인
막스
그리드
집안일
미키
편집자
너지
압구정
개포
단층
사회관
신시
그리구
명작
뷔페
잘리
차차
김양
##블랜드
카운터
그린다
십니까
장영
서두
##티노
인단
축물
평행
최강희
클리블랜드
숭고
벼르
닫혀
##푸드
최승
왓슨
은커녕
페미니즘
##주곡
미관
죄수
가벼움
마스터스
강우
케냐
양분
너덜
제갈
이상민
##어링
2200
불면증
쓸데없
삐뚤
악성
풀어내
##베이거스
라스베이거스
퓨어
##이상
격돌
극소
세사
여닫
##게더
##세웠
중심부
사체
예뿌
머뭇
브리지
Re
친다
##all
다닌다
술잔
수로
신변
홍진
원액
투게더
파이널
예여
저승
밝혀내
무너뜨리
겠다는
##난방
나리
하로
##CO
버지니아
비빔밥
부랴
연민
시켜요
나경원
유명세
매운맛
어째서
##근무
손해배상
무용수
다분
KBL
그랜저
문고
샤넬
프렌즈
모성
으냐
지워져요
로스쿨
뜻대로
오리엔
큼지막
##렐라
##태평양
미아
커트
##들인
기하학
회가
파묻
##득점
통관
계룡
이해찬
독일어
리얼리즘
뒹굴
캘리포니아주
당은
한솔
회부
고귀
진드기
고창
불린
수문
빠른데
전문대
정치학
대등
묘역
누수
추행
한데요
야단
키가
이직
지름길
나뭇잎
해짐
수초
렉서스
숙지
노니
재부
캐치
목돈
이제서야
커피숍
아반떼
##텔링
스토리텔링
토하
7500
PK
순응
디럭스
혜성
##렌스
지으
촉매
대남
JP
에듀
##필드
발암
토탈
편식
춘향
더없이
병우
찮은
비수기
미칼
화고
미투
발라서
칼국수
쾌거
정수장
원초
##그림
##레이트
부직
팩스
ABC
계장
세아
부드러우
향긋
부딪혀
들으
흘러내
들인
면회
봉하
헤겔
권한다
##의회
><
뉴트
정확도
##붙이
탄산수
포티
##모어
정예
노고
둘러싸여
도전장
중생
커스
개헌안
출사표
병장
안중근
마이너
탄식
##스윙
NHN
장현
##th
끈적거리
도화
정동영
gs
세정제
따라야
포만
증발
짜임
떨치
어우러지
밝혀야
뼈대
디딤
리얼리티
비운
싱크탱크
이광수
서핑
스콧
두드러졌
경치
##아서
졌으면
받아
발해
##EA
##기계
풀린
해태
##부리
클러치
주안
인화
해운업
윌리엄스
기묘
연락처
소총
##조림
나트륨
동호인
숙종
순탄
최경주
##심장
초중
가옥
맞먹
##문고
느닷
작별
타요
축축
광우병
재혼
사상자
광복절
속보
##충제
##ra
##ㅁㄴㅇ
작음
황후
부영
사색
클리어
네일
동종
수하
문전
신호탄
무더운
두드려
##러워
##딩크
금지법
다려
내진
만인
##베르트
피부색
움츠
묻히
점주
외교통상부
##더슨
생후
쏠림
벽걸이
간병
사적
엎드려
귀하
역삼
의논
혼수
송정
흠잡
토머스
방제
주조
신봉
성문
달서구
독해
교외
웃돈
##일관
예술단
북돋
으리라는
모션
노려보
히딩크
시피
김구라
사들였
클레이
잃어버렸
스탠리
주중
페인
양품
눌려
부팅
##67
발코니
콘센트
기념비
역행
##파니
원할
등락
들여놓
배척
사본
쓰다듬
쓰레기통
앙상블
가덕
라라
토론토
편곡
사명감
닦여
일명
러블
석가
무제한
들으면서
바빴
로웠
##푸르트
##특별
도리어
양조
관청
세르비아
겨자
어려워서
미즈
눈매
워즈
노키아
험난
준설
더디
플래너
반칙
혈세
운동복
방법론
유라시아
정신없이
정파
사절단
이보
추천요
브라우
네유
무등
성토
방청
넘나드
브렌
##중기
뭉친
로이
##정지
격상
낸드
카스트
조계종
초저
전광판
부직포
주정
틀렸
##대원
##친절
왕따
진격
영유권
니퍼트
대장암
고층
늘려야
뱃속
화단
기행
카다
백종원
즉흥
아폴
##돼지
패션쇼
격파
두드러진
갇힌
날렵
내공
##앓이
함안
복당
놔서
다윈
독한
역사관
페널티킥
왁스
##킵니다
변증법
괴리
캔디
소중히
1956
미나
유골
##초리
못함
##정우
다가갔
치웠
사회봉
전산망
재봉
버금가
의병
순대
온다는
EX
맞교환
분쇄
피라미드
##net
깔린
식생활
잠든
문학관
스툴
mg
박명수
간디
광기
로망
껍데기
심할
회기
##구름
연명
난간
높여야
선회
밥그릇
오오
산림청
스며드
초미세
최희
노태우
독서실
색조
입김
##카와
국산화
입혀야
가렵
떡국
호세
인색
제강
경건
순항
정미
##아졌
강남역
잔향
가져와
삼양
SH
백혈병
##코프
1947
물꼬
공부방
그지없
이력서
리빙
유부
타진
시가지
유심히
기울일
심폐
크리스티
1954
우주선
1958
경멸
백일
##미아
질기
차관보
복안
축구장
항산
##길이
발작
먼가
수긍
##깁니다
약혼
결연
불량품
##연구소
ㅇㅎ
유스
텀블러
계망
센텀
리베이트
기로
정영
##우마
둡니다
핸디
땡기
까맣
린스
헐거워
허탈
수신료
제빵
들끓
각료
벌어진다
부조리
역경
열띤
알아주
고군
카프
사조
탄수
출근길
일깨워
란스
주황색
##게이트
행자
사대부
##보냈
5500
##송이
왕래
##세스
##델피아
낙점
필라델피아
공생
출가
리카
창건
버즈
플래그
감내
흐느
##로라
강원랜드
당파
##습관
아득
월남
알파벳
마중
거르
율법
남발
거려
라파
식습관
남양주시
포상금
구토
썰매
김태호
##iz
독립운동가
맘껏
예우
밑거름
붙박이
##블로
찾아간
이동식
물줄기
트윗
마는
중개업
정거
시커
함락
별점
연기금
국부
##ㅈㅂ
굳히
빈소
고원
감염병
세브
날린
한탄
청담동
스완
밀폐
폭언
실망감
무마
철광석
튼실
미륵
어쩜
##는지
사회생활
액상
석고
##ine
엘리엇
형량
##홍철
봉합
위자
##비슷
우루과이
가히
출고가
풍습
일몰
되돌아보
토벌
인내심
이체
모교
입담
라든가
##48
##께끼
수수께끼
타지
볶음밥
노브
활자
귀염
열사
변국
##부랴
내려갈
사카
약초
친일파
예사
교시
법리
외로운
송시
풍수
교향악단
##메리카
내보냈
동두천
비지떡
백운
흐를
환장
넓혔
회의록
토해
이낙
##마루
길들여
플렉스
경부고속도로
알아듣
애호가
소문난
##몰이
답장
캡틴
방광
시구
블루베리
화약
확연
윤활
진가
내려진
수은
잠복
앞장섰
일지라도
끄덕였
BI
손짓
드셔
성가
탁상
박영선
곧잘
적격
모름
반해서
파파
자자
어정쩡
##산업개발
역사가
##해튼
체인지업
연석회의
백서
무기력
경영인
##OD
부랴부랴
수경
끌어당
340
신인왕
##따리
야근
임팩트
##효과
양키스
퓨저
##우주
##패스
오묘
폭동
인터페이스
가래
원론
중거리
여고생
방증
다던
자활
접했
필로
아낌없이
새기
테르
##ㅈㅅ
김성태
소모품
맞음
예언자
PF
고압
##춧가루
여실히
거행
발제
외자
열거
천식
##림픽
대칭
협소
코코넛
사부
전류
나고
##아티아
##쫀득
##예프
##99
크로아티아
프랑크푸르트
놓칠
창호
##24
맨해튼
기껏
면밀
선다
초겨울
##코트
밸브
약진
허허
##조작
##지물
트랜스
식빵
다가서
구세
메릴
로직스
구금
의료관광
보따리
나아졌
봐야겠지만
특전
할게
흐릿
##마차
힌두
재능기부
고체
연장전
창업주
##주석
객체
득실
숙였
##모스
자상
망라
팩토리
쥬스
이형
말끔히
생동감
초인
검단
맹목
문희
오미
몽고
간선
수구
##25
SDS
정명
직시
교전
끝장
엽서
오차
##용품
둘러싸인
교민
왕세자
풀릴
조마
##둘레
차액
연연
이토
자본가
##누리
조달청
불친절
장윤
##tt
락할
빚어지
연례
항변
박형
##효진
보호구역
##75
##의정
퀄컴
국민당
정맥
KLPGA
체증
볼리
무너질
1955
오프닝
세워졌
친하
##내미
닥친
승부조작
비대칭
유민
참된
현기
출항
맞춰야
물려주
메디컬
정거장
브릿
충청도
추미
빼곡
단국
박은
단수
닷새
##석희
상쇄
댕댕이
긴밀히
##음료
식료품
주치
섬진
문화부
상했
요일
릴리
뽑힌
마개
##날리
에이전트
담회
태운
뒤이
줄리
##대식
빼앗긴
낸다는
행주
bb
피서
지뢰
사업소
오갔
낙지
달구
호국
와도
물병
손보
토이
관공서
허영
무술
복고
박철
부문장
수임
지미
학설
입음
##을거리
##조각
트레이너
에로
비어
세터
의결권
원통
찌개
헤엄
주효
직감
##BI
내사
비철
정취
무스
높인다
도금
850
오정
심이
코튼
직선제
폴로
##승원
히로시마
음직
##베르크
선한
물어야
영사
뒤흔들
포획
##88
해산물
겸임
##랙스
탄수화물
텐데요
이낙연
널려
상법
일진
요걸로
획관
색칠
역외
잡초
도식
##46
찌그러져서
방범
##웃음
솟구
최태원
큰데
경도
유유
드릴려고
##자실
중앙아시아
비석
##지가
흥국생명
노랫
유고
조잡
지그
띄워
##준혁
데기
티스
팽배
현대산업개발
아닙
##노동
앨런
끼어들
매서
말썽
방재
판서
각급
게을리
딸려
라틴어
부단
##유국
방점
각이
카멜
박성현
현빈
규약
안기
편도
몸소
박연
심부름
명쾌
나타낼
물맛
우레
##__
카터
김정남
판명
대장정
차입금
대니
##배기
가처분
재조
##르륵
##ss
다리미
메이지
발사체
누진
부쳐
온화
남중국해
프란치
내무
게시물
기가
시찰
데코
제단
손아섭
취수
파멸
쏠린다
영양분
국교
창시
초소
##쓸이
두려운
포커스
^^^
하하하
항체
통치자
무배
수혜자
아리아
합해
가운
어뢰
찢어져
쫀득쫀득
개화
밀봉
알렉스
인심
싹쓸이
정력
##ㅁㄴ
글래
##23
우선시
받아들여야
여긴다
##분투
민간단체
위인
공복
심근
패럴림픽
발단
도면
부조
##ell
찌그러진
정쟁
시모
칭송
##사각
내려간
토익
가림
콤팩트
분담금
트라우마
##어짐
살펴봤
진나라
훈제
리딩
감미
비무장
컴퓨팅
산양
순정
하모니
유광
##ard
관저
가산점
해결사
드립
부속품
설립자
총영
기름지
미신
성완
구타
대추
번성
안내문
주간지
아스널
나성
완결
북대
야산
희극
비화
빛났
곧이어
바티
양구
수기
코인
##란스
이재오
발맞춰
HS
협찬
김한길
맥도날드
##불이
방문자
수세미
LP
##매기
부득이
루마
##바리
밀려나
애틀
대형주
수모
자족
네임
신발장
오우
녹조
을려구요
닉스
아닙니까
반역
불식
반정부
##ob
쉬울
도산
분신
ㅇㄻ
슬기
NHK
떠넘기
자회
살충제
신학자
권혁
멍청
오동
나무랄
이남
##데시
스파게티
##운동연합
휴스턴
핸드볼
성완종
회자
냐며
해프
줫는데
가로지르
고점
티브
작아지
거듭날
톱스타
본다는
뻔하
자화
아로마
소재지
##다오
도시바
실루
주성
싸서
문학사
##발가락
##경제
교통수단
송승
오감
오송
동동
장학생
졸음
태권도
양악
포만감
선적
헬리
휠라
##도그
맛난
사활
재회
앵글
법률안
정몽구
부치
알몸
사들인
안토니
붙여진
속바지
공민
긴박
알프스
영정
김옥
락스
그로
되살리
일렉트로
관망
친지
애틀랜
##넥스
공병
장충
##동산
남대문
##회원
##저가
신현
약할
조우
납세자
최원
제프
홍명보
벌렸
WBC
##15
궁리
세탁소
정약
기뻐했
CI
레이크
cc
안함
스테이지
글귀
오비
##드래
마리오
플레이스
##43
캐디
떨어뜨렸
끝난다
디펜
퍼붓
도사
레트
##계약
노을
황소
손주
논설
대군
##폴리스
위키
위엄
포터
##버터
##에이터
알제리
산거
##질렀
항암제
##적거리
국제법
방불
호스트
방정식
##정원
##ㅇㅇㅇㅇ
빙하
서포터
아꼈
개인주의
소도
유실
병동
비행장
괴로움
퍽퍽
도맡
사와
후반부
1959
기흥
독단
청주시
게릴라
지프
하이데
유토
##생긴
배반
##카이도
방언
백수
적나라
책임져야
블라디미르
사우나
요직
전학
박빙
홍천
##플릿
프라이머
발레단
겉옷
문질러
떨어짐
심리학자
그걸로
쓴다는
아미노
##통수
루시
플리
덧대
프롤
암세포
처참
금천
개최지
수난
쓰려
환희
북한산
별거
종주
서요
빠져나갔
초고층
안병
꺼낼
조재
베네치아
산은
평지
##글라
광산구
기절
섞이
위선
이효리
불운
문책
경차
여호
크라운
내민
밤하늘
자유자재
끼울
서약
##지휘
천혜
팬택
반짝거리
성탄
광명시
아삭
봉착
폭소
해프닝
피카소
부원장
과부
영산강
강관
재치
##란도
대행사
##일체
연약
##서도
시발
인신
혈통
고위직
박석민
헤드폰
난로
##던지
마리나
류승
조폭
투자처
일절
정성껏
쟁취
쑥쑥
막아내
묵인
##바위
자산가
엇갈렸
카메
기치
답안
##큘럼
데려다
맞닥
##해하
##ee
반년
의성
런닝맨
##벼락
오아
소작
그을
탐내
돌아와서
군자
##에다
##발라
커리큘럼
칼리
마이스터
칭호
투영
남인
예치
적재
원어민
통신비
임상시험
사니
나면
차후
메드
장어
나우
줄까
하산
끈기
베스
거동
마야
##첨단
최첨단
끊겼
열도
조선사
응가
##먹이
이범호
육신
낭만주의
찢어진
미화
오클
추미애
질려
화신
그리워
가발
히히
갑갑
판독
포옹
2300
배심원
불태
초당
재보
찰리
실루엣
변한다
##13
중저가
된다며
하순
아까운
서동
흘러나왔
네스
반했
항균
##빨래
경영난
전태
별관
섣불리
슬라이딩
산다고
##숫가루
빈곤층
마곡
6500
민회
##축제
중등
무거웠
조원대
사비
##케인
선형
연구비
디카
향이
우방
판세
이율
##65
고춧가루
파시즘
마사회
들려준다
강팀
병상
##아아
문짝
방풍
앞당기
글구
머문
귀추
전집
출소
방송법
날아갔
몰이
##ue
추도
DVD
##브로
트로트
녹록
아함
특산
##더드
곤두세우
무가
크리스토
뻔한
미숫가루
부엉
##22
반향
방심
##프레스
순경
덕수
##만장
데크
뒤졌
부름
##제강
제후
##무시
##메르
돌진
##진진
세계사
부끄러움
시종일관
관현
커녕
루비
자몽
홀리
편집장
글루
조양
달한
맹자
튀어나와
끼웠
무량
봣어요
##랑카
몽땅
드러낼
사로잡혀
살께요
우먼
화염
1952
수해
고어
뚫린
프로그래밍
화합물
끄떡
병살
정부군
최고위
설전
일병
몸체
병기
유람선
겸하
똘똘
삼계
젓가락
동천
##꼬박
썻는데
바라본
이성계
온열
걸어갔
행인
내디
걸어야
외관상
꼬박꼬박
항공편
민노총
스트링
끼얹
원문
명가
에볼
카펫
레슨
##블릭
철판
##회관
무용지물
금형
휴무
옹진
커도
박유
팔자
프로필
절실히
투표소
다목
스냅
리비
첫발
##들였
불통
마르크스주의
안드레
##다이
선양
면면
최문
독립영화
카리
##정리
낙서
지배자
수의
완강
끌어올릴
스펙트
작위
파국
숨통
응징
점하
차남
까치
지압
##세탁
세워져
##드래곤
나눈다
불능
두드러
투데이
##데자
시민운동
쓰임새
골치
인해서
따가운
살상
순전히
임창용
뒤돌
다거나
담가
라구요
설악산
도난
도적
연작
잡화
캡처
밀려서
비키니
고을
받치
오인
유년
바자
맹렬
곤약
내분
##데자네이
이서
하회
건재
스탠더드
##igh
최준
가리켜
가로질러
엄숙
##나요
참혹
핫도그
##ㄹㅇ
퇴직자
동국제강
풍물
엔트리
고군분투
편안히
공고히
식스
프랭크
소실
짬뽕
##주부
정희
주물
IR
한기
음력
##ㅜㅜ
어루
허다
자만
스펙트럼
포르노
위기관리
힘찬
근황
환경운동연합
네이트
흥미진진
현판
##레타
헐떡
생계비
##손가락
로또
시흥시
내란
롤링
상작
왕창
리우데자네이
리우데자네이루
##착륙
브로드밴드
가와
지아
선발전
일어섰
선구자
외압
듯해요
반세기
##그머니
증권가
총각
경리
비노
##mi
어울린다
앞세우
등용
발각
악보
금빛
나온다는
송년
씹히
1957
죽일
물살
조승
윤동
우발
색은
대파
팀워크
매니아
군비
담수
##대성
이승기
셀카
채식
자금난
결정짓
뒤통수
일식
##낍니다
부가가치세
##태현
공급량
개의
네거
눕혀
상무부
세련되
소령
고금리
메리트
뜨개
큰아이
지우개
슬랙스
지바
미개
구피
요런
몰아내
원색
##레트
들떠
견줘
연사
허나
우크
고상
소견
압박감
워드
허약
우크라이나
##28
강해요
변방
이만큼
냉철
##레븐
홍문
뜻밖에
어획
였으니
##꽂이
예스
일으킨다
심성
초고속
걸작
256
조어
볼일
사하
꾸밀
육안
회고록
야망
마셔요
결부
팰리스
서귀포시
수놓
두텁
으리라고
감돌
이정표
리메
센티미터
라디오스타
마모
선량
조림
파마
이제껏
대꾸
맞히
귀향
##진흥
##95
국민카드
##스포츠
나날이
광양시
ㅏㅓ
조희
전도사
AK
민원인
컬럼
유시민
기왕
음양
루테인
완구
얻어맞
먹을거리
이채
괜츈
비비고
안부
뒤틀
켯는데
분도
충무로
느낍니다
어려워졌
헬렌
국빈
토스트
##자루
균등
일례
익힌
영화배우
##자주
김기춘
애프터
반동
타르
나온다고
휴양림
안종
일러스트
네거티브
무시무시
역전패
##27
모이스
박테리아
세면
장지
비닐봉
삼각형
만도
통념
##샤오
예고편
미들
존립
DTI
최인
카바
절삭
커넥
빈부
벗겨져서
행세
야경
종근
징벌
행각
로테이션
2100
수칙
AFC
해봐도
205
연봉제
못합니다
##커피
어류
불변
예탁
절호
여의치
잔금
현혹
더한다
전위
찾아낸
사무처
간지럽
소급
아트홀
처신
떠올라
이민호
소울
속지
반나절
리코
물집
선종
시보리
지정학
천진
차렸
정강
회유
480
황재균
안전장치
전해져
##ive
꼬이
##반찬
근현
부렸
되새기
앨리스
기해
Mnet
폭파
아바타
터무니없
히든
카페인
최전방
카탈
종용
지역주의
디바이스
천일
부산은행
독일군
정승
##장판
매거진
교두
하급
활로
흔들릴
무작위
심미
##ec
생겨요
개소식
##RT
서대문구
아실
아군
간사인
로빈
인공위성
부총장
이타
구겨지
헷갈리
박신
트로이
소인
이기주의
##레오
유통망
##선스
대당
협주곡
##연재
교육자
발신
옮겨졌
안쓰
끄집
빌리지
##중독
돌돌
일출
이완구
망신
병영
두상
전현
키워야
원효
팔목
라이선스
누렇
눈금
다신
유추
종단
트릭
함평
항공우주
취해야
파이어
한국사
악어
신드
##스타일
산동
구급차
##테이프
손색없
시문
쏠쏠
##85
##자키
양립
울부
##에트
신격
지와
남궁
훤히
익스프레스
코딩
바빠서
박쥐
폐사
아무거
분대
지도력
실직
버팀
잠잘
타원
SPC
정근우
구례
쿠페
양천구
서태지
챙겨야
독식
여대생
한적
걸루
난제
터뜨린
토사
##좌석
무의미
노린다
호도
부유층
불기
아수
재산세
내게는
이학
절세
##33
병풍
홀드
우습
모란
미끼
소질
##푸르
비문
이용료
대진
유업
세타
충칭
그네
골대
지긋
인피니티
대소
##라지
##질서
급할
사이다
카운티
장작
##17
떠받
마하
문사
상충
##베아
창사
디트로
패자
디트로이트
가도
##타기
울부짖
하강
김강
받아들인다
지팡이
떨어뜨려
허리띠
리턴
시킵니다
기름진
##각형
한라산
황산
혼신
장본
공산주의자
노숙인
부침
시제품
구구
포고
##중일
##혈증
황우여
1951
리바트
옥외
시원시원
##다발
이분법
재가동
세모
가창력
영상물
무심코
소극장
서병
징역형
갈림
##코르
토르
노장
대학가
변별
스트리밍
던진다
독신
분통
후끈
당한다
##유리
##^^^^
밝힌다
긴가
어두워서
저령
모피
시린
아킬
창백
진주시
악역
관중석
##조마
AFP
플래닛
다각화
진부
금융업
열량
청룡
숙청
고음
나왓
자임
##톡스
준하
방글라
방글라데시
후미
##인구
이승훈
벙벙
환해졌
레슬링
처치
고마워
슬럼프
##상정
##가슴
겸허
피켓
코프
##줘야
시의
로열티
박완
편파
연습생
사살
충청남도
cd
저버리
구우
도교
##주니어
김두관
듀스
봉우리
미켈
인부
린드
완패
##our
일구
소용없
##연료
##십리
##49
선거전
강가
구정
##35
##슐린
석회
서클
깨물
빠뜨리
전래
사립대
조마조마
##하성
다가온다
위시
반부
##노당
문과
민노당
의석
질질
일면
등대
프란치스코
캄캄
아이비
취록
부러져서
##재해
지원서
공적
말릴
상추
슈퍼주니어
소형차
교부금
클라이
바랬
등단
테스
랠리
맥심
모진
미연
알짜
부업
통기성
인슐린
쟁쟁
WS
제리
뒷좌석
예시
고주
조중
##시울
지하철역
김주성
켜졌
눈시울
기성용
슬링
터트리
차우찬
공정성
단일팀
동글
마도
핵연료
승수
변제
기념회
론스타
국제축구연맹
고농
제청
신협
시경
박진영
멍하니
혈중
420
자연재해
불명예
광해군
##47
유키
사저
암울
살펴본다
간파
천둥
제주항공
족발
제스처
펜싱
힘내
수출국
빵집
##더라
임태
##ㄴㄱ
원은
두깨
👍👍👍
무용단
시금
##바이벌
싸여
피시
^*
국무총리실
개요
##화질
##결연
자매결연
한명
악당
백조
이주민
지동원
##셔도
등부
##사진
쏙쏙
경각
왕권
다섯째
꽃무늬
구설
블랙홀
노랗
도립
팝업
경시
더라고
귀촌
정신력
요코하마
본전
탄원
크림색
냉기
야후
진다면
이니셜
종근당
1941
##ik
지반
밑부분
배지
언능
교두보
방전
미래형
느닷없이
거침없
값비
물길
점막
추징금
##ㄴㅅ
##클로
하나같이
측정기
명물
시추
부풀려
어지간
자유민주주의
멧돼지
불매
차출
고만
남색
포탄
망상
미움
서유럽
웅크
묘소
##거려
기다린다
망사
##스턴트
떠들썩
선선
십시
낙원
접합
콧물
근교
##탄불
애국심
강석
금수
##뱅이
중독자
밧줄
각별히
공손
당사국
양의지
이홍
에스티
상영관
앉혀
SN
##ES
맞물리
주전자
기장군
컨트리
산천
오트밀
템플
이동하
RO
이승우
남겨요
고삐
손연재
브릿지
이스탄불
일회성
짭짤
향연
신드롬
튀기
맥북
배석
370
체벌
엄선
매춘
자물
인스턴트
메워
통할
되돌아가
명곡
깜박
프리킥
목조
송출
할인점
조미료
발대식
종묘
라켓
고용부
벨라
##브르
장원준
EV
강신
청색
재조명
##ㅈㄷ
대패
케빈
어루만
##텐도
카다피
벌려
장구
풀려서
스탬
사무장
한스
뛰어다니
모종
정리함
윤정
커텐
스파이더
CIA
니아
옥스퍼드
애경
직계
닌텐도
주니
오스만
시외버스
하중
기록부
##규어
신년사
엉터리
허덕이
리시
튜닝
##수정
우리투자증권
##상승
2800
탄광
블로거
##대군
하이데거
우기
오성
포유
곰곰
##핑크
##림동
끝낼
수혈
요격
##프레소
치욕
on
대놓
떠도
통했
밀수
칵테일
학기제
숄더
놓아
##pm
반반
내야수
저온
겸직
계주
돌기
레이건
스웨이드
붕어
##가방
한테서
나머진
부적격
전관
##라면
Al
재우
##매장
투숙
미로
패스트푸드
성역
프런트
협연
휘둘렀
급선
기정사
마지
슈가
기정사실
인듯
##MS
박하
사들여
조준
중금속
오자
SSM
뜬공
형편없
베이컨
히스
실컷
한경
##89
기린
보니
중문
비쌌
쪼끔
옐로
카우
근무자
MBN
아미노산
##구매
반주
특공
올려다보
터트렸
바란
과소
하임
모독
차상
##걸스
신빙
무수히
대물
도도
윤희
##실록
풀타임
제너럴
금물
반대쪽
식중독
##연설
강화도
경실
정숙
흐른다
원성
부셔
노원구
미온
늘어남
왕족
구도심
310
2700
하남시
강동원
다자인
에워
기엔
다가갈
희망퇴직
파이팅
솔라
문진
임재
히데
습니더
##//
수프
차곡
고물
임영
제멋
보합
##며시
이회창
구술
드세요
레이트
결장
면하
천차
화원
##비용
USB
미일
##타오
방지법
520
##쿠라
덮여
로펌
탈레
포문
험한
조인성
취침
2600
지구대
다이오드
고속버스
프라자
묘하
수려
후라이
정벌
김부겸
튀겨
##데르
글러브
행한
맞이해
승부차기
방편
세조
황급
##세라
나일
죄다
GPS
법원장
탐정
상속세
소방차
토기
이정희
정량
깜깜
##츄럴
역풍
더한
재규어
##는데도
견주
임했
뒤척
전성
계보
김덕
변속기
과업
특별시
갑옷
흥청
바쳤
부러진
신통
드라이빙
스타즈
나진
국민대
였으면
##소매
나아질
왕궁
필하
아보
조코
##수무
본청
였음을
모자란
기조연설
감귤
홍영
##37
양가
엔젤
##메스
##ud
거렸
때린
아산시
기계식
송중기
1944
송지
1937
송신
양주시
용액
후추
연천
##마른
##쫄깃
범람
섬뜩
뚝뚝
시끄러운
방관
감산
소심
트렌치
프레스센터
크라이슬러
소정
기본급
둘레길
경추
저물
치하
##창수
공모주
이근호
로컬
안과
문수
산호
정박
##정보
기권
상록
쉐이크
파헤치
원청
콘테
해녀
새내기
거느
코스타
레터
이태원
메이트
일수
정민
이용규
값비싼
돌아선
석부
갑작스러운
보아
차주
BNK
달려왔
신지애
바가지
한입
교통량
괴로워
즐거웠
아메리카노
가져갈
##ice
교습
정운찬
성년
시초
##마당
던데요
후일
##나비
미완
제하
합천
##14
즐긴다
안대
서희
##에른
다독
섬진강
##거린다
라야
전법
노블
텁텁
론가
힘듭니다
마가
라가
현미경
김중
꾸짖
끄덕이
샘물
세끼
##ld
장본인
피웠
철강업
##다닥
##ill
성종
경동
췌장
##서니
숨결
왕건
430
펴냈
쫄깃쫄깃
돈독
부스러기
Th
척척
1939
##진로
NBA
##ime
ㅇㅏ
말년
설리
다윗
반송
베젤
시려
난치
뻔뻔
우완
참기름
헤어진
편승
일색
승부처
끈질기
GTX
이놈
감칠
엄밀
루마니아
부화
노파
제값
액면
##임즈
리메이크
##오피아
에티오피아
수온
예천
저우
##66
##포츠
폐교
배성
백설
그럴까
온건
애틀랜타
정찬
뜨끈
동갑내기
수연
데이비스
마일드
스노우
귓볼
빅스
##고생
##조심
진짜로
신문지
오르막
밑그림
수증
학벌
##덤핑
정윤
팔다리
그놈
반덤핑
융통
간암
위드
불러올
해직
하찮
꽃피
신간
항문
##팔트
어다
타미
경남기업
교화
미풍
메스
찾아올
##택시
아스팔트
뉴턴
녹이
부엉이
자아낸다
소비에트
집적
저소음
SO
국력
##가드
개울
점성
플레인
어려운데
자물쇠
가자
꼐요
신조어
발향
소지품
훑어
결석
장재
NY
적십자사
공전
컨버스
쓸수록
##쇼핑
sd
버텼
굳건히
남달
범어
은총
파이터
출산율
파전
양산시
전주시
군살
슬램
셔터
산사태
고해
모리스
형용
##각색
김철
중환
사병
뭉클
희비
스트라이커
티백
전기금
##44
아이라인
진두
HP
성동구
어딜
프릴
1929
펑펑
##종일
조제
모기지
태교
연수구
##거품
관음
빗발
악단
비닐하우스
인포
불어나
그러다가
오롯
광진구
##은희
현란
일주일
무혐
##교사
찍힘
베이스볼
치워
무형문화재
떳떳
솔선
##티넨
##폭탄
##차곡
진에어
돼왔
차곡차곡
도봉
자청
챔프
##기능
디딤돌
별자리
모하
요양원
해이
CR
덜렁
##ge
안일
진성
나토
##@@
차단제
쌍방
수학여행
##ub
##세린
마크롱
뭉침
불러서
말렸
동강
일임
진달
희생양
억대
나쁨
자잘
##**
남한산성
오락가락
판시
리허
강경파
휩싸인
제구
##무새
##EN
하이퍼
상한선
권선
도성
솔로몬
예체
예체능
##신호
##르담
관리인
뒤쫓
전조
상학
지고
시부모
질식
법사
반미
프랑수아
노회찬
별칭
승낙
가르칠
특파
##니카
민첩
천성
강용
NP
홋카이도
중기청
변화구
유토피아
총출
##29
신데렐라
트레인
1936
경미
##둥절
어리둥절
방미
로버
수학자
빌트
화훼
특단
##저지
야유
성관
속마음
덧발라
노년층
보르
잡힐
불멸
##불명
기병
스즈
모카
림프
총력전
htt
인계
서바이벌
자가용
악명
응시자
JYP
##77
스탠퍼드
연단
열심
제창
뜯겨
보사
실례
##만별
영남일보
드롭
천차만별
축구단
감염자
유휴
바싹
머스
1933
양용
최고점
내피
##16
타이트한
정약용
쫓겨나
성황리
실에
통진
동성애자
FT
타오르
##놀림
러서
추징
헤아리
간다면
성큼
민박
고위험
블레
총학생
총학생회
##마드
버라
모퉁이
사회봉사
공여
퇴적
##니언
홍보물
드셨
##그래
울창
할로
찌그러지
##르바
프랑스인
돌봐
뺍니다
##히로
걸린다고
슬그머니
저점
특조
증빙
친족
특임
컨테이너선
2023
로페
레포츠
은사
##38
고은
다진
치석
샌더스
##래스카
테임즈
감독관
차도
##순간
구진
상투
단도
발찌
보위
라이더
앉히
빼돌린
경각심
간만
봐라
미지근
유희관
녹십자
테크닉
제수
##지우지
권태
유사시
진급
아픈데
과천시
##가격
물리학자
좌지우지
워낙에
콜드
고고학
보루
##다이스
보로
베라
하시
속상했
길들이
슴니다
뚜렷이
조일
##거슨
브레이
임성
절규
버팀목
위약
고야
##벌리
배아
했으므로
##요금
갈려
독선
쓱쓱
압록
버라이어티
본받
저작물
##캉스
푸른색
으레
니혼
바캉스
뻐근
선취점
낙찰가
김순
##수도
금주
행정력
알아들
한정판
발포
적군
성시
맞춰져
원예
박광
##런치
영아
사과문
하이트진로
개명
수아
이맘
뛰어났
위급
뒤따르
될까요
민경
아브라
부서진
##기념물
황급히
에미
페더
숙취
추워져서
성씨
애절
후진타오
겨드랑
글쎄요
생김새
ㅇㅂ
획단
공실
났었
장롱
##바삭
구려
감액
기제
다쳐
더비
영호
##일비
##ers
측량
닭갈비
갈렸
격식
시름
섭씨
마운트
툭툭
피플
천연기념물
예정지
화이트로
YMC
단비
리니지
버크
산성
풀어놓
해물
##게이
얌전
양희
됩니당
스가
좋아해
계산기
##ox
퍼거슨
##여정
215
제우스
성모병원
움켜쥐
성취감
금치
기판
##글리
##광장
관동
유기체
수공
전범
그제서야
삼계탕
kW
봤었
묶인
놀라울
꺼낸
허경
자평
초구
##니엄
스포츠카
검지
압승
제멋대로
사선
유니버설
막부
바리스타
백지화
탈레반
총출동
잡혀서
##조물
감사관
따라다니
빽빽
성행
헤치
난해
이덕
파일럿
김재환
고화질
평민
덧붙이
일파
점잖
##21
싸운
어질
템포
뼈아
개진
평원
뒤떨
##카메라
기압
장엄
##유사
##네즈
웨이트
배운다
##소타
양방향
##관절
##26
가이
여길
향한다
거버
올까
추계
##겠다
달아오르
하승
목공
몰릴
에너지원
바이에른
김진표
##허전
서상
##재판
각색
컷팅
##창민
나약
셰일
비밀리
감겨
브뤼
종착
암벽
떠올려
일본식
라이스
수렁
도안
내려지
##학습
늦출
OP
징크스
1905
조지아
책방
판단력
부원
예비군
##르노
마누라
##NC
식자재
기교
봉급
임정
넘어간
노면
대타협
황희
조선대
빙그레
##불허전
고칠
구매력
의견서
리허설
원정대
걷어
레미콘
개발비
걸음마
분업
만삭
산간
##클리
당헌
명불허전
지은이
치는
둔갑
부러움
비자금
영화사
1938
노점상
서현
블루스
경실련
입항
다이나
친목
꼬치
향방
유대교
명지
스스
시큼
홍석
영화인
용의
살아간다
끈질긴
기복
병자
신호등
부탁드립니다
화학제품
방파
##촌동
고택
도드라
풀뿌리
레오나
바삭바삭
겉면
음미
##★★
난립
배색
스피치
루나
올레드
##박질
하정우
국내선
##프라노
누운
찌든
기억나
미네소타
##사장
서글
수진
파라다이스
한승
비호
저러
전언
문지
추스
극소수
단상
로저스
간질
강연회
진중
순결
미끄러운
서지
교직
정월
지민
크리에이
크리에이티브
걸쳐서
공학부
포켓몬
보관함
김상곤
수천억
재판장
졸리
첼로
##공주
##사기
체험학습
간간이
잇따랐
자위대
건져
##ㅠㅠ
상계
##드득
용선
보내왔
사각형
무식
동양인
##문화회관
피리
##예진
참모총장
맥아
사행
세종문화회관
야구단
김상현
영락
프론
등원
만행
분뇨
비칠
개회식
착착
비올
죄악
분분
꿀맛
준공식
토요타
##보증기금
컬럼비아
GP
주세
중심주의
마더
보청
##수무책
속수무책
치장
성심
분만
일문
김재철
일인
피렌
정두
특파원
굳혔
들뜸
##감독
마이크로
김경문
기출
송영길
명랑
맛봤
별세
이여
이봉
십자군
흔들거리
##개골
김광석
무례
##ns
##보스
석탑
양동근
바친
##쿠니
##쳐야
데드
번들거림
까마귀
허기
제주시
##틸렌
시호
걸으며
##te
DGB
펭귄
방바닥
겠다
케이프
떠오를
안영
미끄럼틀
담아낸
##선미
행정소송
nbs
화천
베이커리
오렌지색
고려인
가용
전권
돌아다녔
미뤘
작자
##스톤
외연
이언
거북이
강민
285
진달래
클라라
법조인
곰돌이
딸내미
성공회
벼락
산신
피해액
지사장
주소지
웨일
내쫓
뉴저지
엇갈린
궁정
파나마
TPP
창밖
통감
천정배
근속
원세
스리랑카
보듬
붉은색
해협
gb
창안
왕관
악장
벗겨져
갈까
선데이
겉모습
항공모
눌러서
나자
##포드
SKT
nbsp
다나
위트
러버
##민가
누스
메라
##과학
골수
조식
공공연
전년도
서프
정유라
피신
독과점
##쩌둥
마오쩌둥
나팔
##워즈
뒷전
청했
공공시설
눈부시
기단
달려온
동떨어진
성곽
거닐
불륜
영결
함유량
청렴도
미워하
지나갈
비스듬
##FF
손잡고
녹스
갈림길
둥둥
속력
괄목
##교동
낱낱
난처
박용택
볼록
##두부
회비
##19
조던
클리너
밝혀져
이권
비욘
격투기
생각났
시그널
끈적이
김건
걸어온
##년생
움직여서
연호
##애미
물거품
부평구
도자
빨개
막장
신구
CU
셔틀버스
기막
칠판
테러리스트
픽업
일률
전반전
롯데카드
매달렸
굴착
응원단
엄지손가락
장실
김유정
리부
되짚
출출
학내
무자비
라고요
언어학
마이애미
가지런
찾아온다
금오
조목
트래픽
의미심장
ESS
개인차
남동구
환호성
갑판
병아리
유원지
설욕
대표부
고마웠
무궁무진
아역
조서
테마주
금값
복역
##모리
우스꽝
##도리
##소닉
##제과
나루
빼먹
살아났
살핀
##현정
못한다고
공시지가
구겨져서
손빨래
어딘지
다락
##카이
삼청
속치마
애덤
##빠르
선례
꾸렸
장가
판가
적색
망설여
강과
닫힌
읍내
##임수
알아본다
##링크
YMCA
간대
갈라진
교부세
삼국지
9900
껑충
갈랐
대종
도처
쳐도
소회
조진
허름
로브
절상
부르짖
긴가민가
비좁
물어뜯
건반
보청기
을께
굴비
편한지
기생충
카니발
날아오
통쾌
##iv
두들겨
구위
오대
헌장
심장병
후라이팬
##댑터
드로잉
중랑
이뤄냈
소나기
KDI
주희
어댑터
IPO
블랭
송광
끼쳐
##노미
전지현
북항
매끄러운
리디아
몽드
후판
##교차
무턱
산만
빠듯
붙여야
프렌치
##18
조심스레
선동열
농기계
하숙
겨울옷
잔해
누군지
나스닥
부연
응집
정준영
동식물
헤비
새하
가느
이왕이면
하긴
블레이드
채점
무안타
기말
미간
지켜봐
GT
저금
폭격기
950
##문제
극장가
##돌프
정치국
열강
빨라졌
황기
정치권력
오월
라서요
가꿔
청해
사회당
뉴딜
외양
우의
##따로
번졌
장률
먹방
긴데
외제
난색
브리티
아쉬울
코코아
승복
##보살
변덕
유리병
의왕시
뇌리
##작전
후반전
끼워서
스크랩
극작
놀리
마주쳤
모면
고여
발원
오스카
금하
넘쳤
1942
시에
빈다
윈드
페라
정우성
부려
엔드
펄이
피렌체
백남
외대
형체
명세
콜린
테이크
한영
자유당
한족
국방위원회
성북구
이니스
##레라
어설픈
강단
##닷컴
계집
따졌
중수
후안
파면
항시
궁지
##시아드
유니버시아드
ㅇㅣ
다를까
##럴드
페인팅
애칭
하녀
시바
괴테
8500
유니클로
원활히
각막
명기
신천
들이대
면사
홍성흔
공리
마티
항성
##달콤
류중일
착색
없앤
##대간
제습기
수족관
직간
백두대간
살롱
함박
##RS
삼국유사
삼성전기
급행
중얼거렸
다분히
피처
##양이
##화가
구심점
중흥
악한
헌금
모아야
아우구
광활
정령
돌잔치
영미
미싱
무위
급상승
읽히
열병
모모
##픕니다
소리치
강희
추수
가람
감청
##혜영
무거울
트램
홈피
##채기
머플러
학도
니코
460
세무서
속살
꽃다발
##원회
번호판
지드래곤
초밥
리거
좌표
나니
금메달리스트
헤아릴
무얼
프로젝터
서스
##조치
와일드카드
신승
미동
스메
##ㅏㅓ
김성수
돌이킬
부안
##추세
소위원회
파나소닉
더샵
이을
누설
##노버
##랭이
도트
단시간
모델링
경대
미진
돌려야
메세지
큐레이터
타이완
가야금
태산
##카쿠
남겨둔
연극제
진두지휘
귀요
납세
졸속
##로션
후견
##생각
기공식
##98
향해서
데려오
미운
폄하
알맹이
단초
새콤달콤
샤이니
##내믹
##뽀득
천자
다이내믹
남조선
신관
재팬
바라본다
스타인
아랫부분
숩니다
혈연
가곡
문물
케리
3200
감칠맛
구만
난폭
##TRA
오더
##람쥐
피어나
수치심
벌어들인
이뤄낸
축조
카를로스
서대
깡통
감회
대대로
협력체
아름다웠
##트니
습성
청량감
구라
차려입
음란물
새것
##68
버건
스로
로보
매겨
벡스코
아낙
비탈
어중간
기지국
메트
쏠려
##미어
##하이머
혹평
##보싱
스탬프
이끼
투혼
탈루
헛스윙
오보
펑크
교동
##줍니다
스타크
낙폭
몬테
진과
1932
--
광안
##ㅡㅡㅡㅡ
후발
여념
##34
##민주당
덜덜
명맥
조임
우레탄
대기실
놓쳐
발뒤
##골목
문제집
전곡
1914
조찬
or
불러오
서커스
대일
엠보싱
꿋꿋
약했
최윤
자주자주
어젯
예열
채광
측은
시큰
통곡
아이슬
단선
스팟
한산
투덜
포탈
스튜어트
가인
##만큼
어젯밤
예멘
했는데도
속편
##라이즈
꼭꼭
누빔
시료
피에르
뽀득뽀득
항공모함
봉인
살림살이
매점
##산지
대제
중종
정일
CA
신학기
가업
행여
활기찬
워머
##☆☆
정해졌
교황청
되살아
##콘서트
수압
토했
하층
노루
##포스
대학원생
미끄러져
서성
장제
대산
상도
약수
델타
로크
브룩
스칼
##타페
할래요
이질감
굴절
가리개
요충
##이동
##콥터
어림
콘테스트
걷잡
3600
자취방
대낮
합한
검문
소송법
모더니즘
문란
쏠렸
##길동
##독부
이음새
열의
홍역
##우먼
천리
흐린
외할머니
어때
##시네마
제보자
푸조
위증
쌀국수
써니
##버시
매합
한명숙
수취
지천
힘없이
잡곡
공터
박제
##36
##렉트
압록강
아이슬란드
정진석
피살
문무
시리얼
꽂혀
##ㄴㄷ
까슬
제패
##갈색
스낵
수리비
위자료
이랬
특대
##IE
갈치
단열
아래층
저학년
우표
찌푸리
윤상현
전라북도
떠밀
차로
##인드
##타나
롯데시네마
트리오
본고
거릴
망막
석좌
작인
장승
직물
주무관
귀욤
뜬다
버젓
의중
좌초
달려오
인덕션
##전쟁
리즈
##55
군위
세도
였으므로
의뢰인
최동
온종일
싸이트
중공
특산품
선불
바이저
이뤄지면
축출
보수당
무서워서
고참
유성구
합판
고성군
각하
고기압
배상금
알아차리
로사
베니스
제원
흑흑
선착장
분무
##조류
난자
개학
##안주
사격장
##42
투자액
##바키아
숨겨져
직간접
안시
고데
##너덜
분석가
이라든가
명태
부대시설
미제
우르
매달린
톰슨
피디
맘대로
작업자
최고가
신맛
오존
근소
급성
얽매이
##코지
##라이터
구연
교과목
##네이터
도운
뻐여
매사추세
매사추세츠
잘랐
도의
합숙
##ㅏㅣ
무예
속했
노크
##78
##타고
##39
앞선다
써봐도
조병
나아갔
대출자
가평군
SL
미리미리
프라이버시
장직
평화상
신동엽
거위
합니더
안전벨트
수석대표
보드라
본원
수두
통신부
가정폭력
퇴색
##어낸
막중
앙코르
세척력
냉혹
대영
청국장
평보
노량
머리숱
김춘
체념
폭등
이종걸
반달
뿌리치
추돌
이맘때
너덜너덜
소프라노
##투합
고하
사천
요고
##RI
부딪혔
대놓고
##그러운
의기투합
허망
집시
급박
##ㅇㄱ
도수
##32
농경지
지도층
두드러진다
##들레
문제삼
##잣집
비니
불합
수현
농수산
유급
티나
강병
단양
##펠러
개탄
나성범
저고리
흑색
##싸개
허비
3300
승강기
따끈
체지방
발뒤꿈치
Sh
칠곡군
출범식
530
경련
규슈
들뜬
##일레븐
부가세
미끄러워
##nt
뿜어내
앙리
주술
헬리콥터
누명
향서
##유업
출연료
에스프레소
강릉시
예단
출렁
하이테크
장밋
자며
수비진
강지
콘도
귀퉁이
화이
니즘
전단지
끌어들여
김제동
차린
시스루
아낄
외삼
쭈꾸미
군포시
ip
민낯
옵티
낙타
패기
남양유업
최수
스폰지
보가
불모
세븐일레븐
동주
없앨
##아치
한국개발
##머니즘
올라타
소지자
영일
##특구
##41
불가리아
hdmi
빨아들이
친수
황태자
장서
동그랗
노라고
오색
한다거나
문맥
방방
행진곡
퓨처스
서병수
감식
##72
##누이
수작업
뛰어올랐
소독기
샤를
##스토리
되물
경호원
대한제국
김하늘
시미
##티티
셀러
액화
정평
화목
창시자
샴페인
케임
##hc
병들
지석
자유투
동장
잡아가
백과
울분
티타
레퍼
지워져서
브리티시
##특위
러프
모기업
술안주
##덕여
대관령
어렴
어원
국판
서장훈
홍차
##티모어
일단락
인요
시트콤
쏘옥
##ort
박종훈
리브
##보호
MLB
박대
젛아
##어머니
모어
고품격
으루
##리사
##둥성
임신부
빚어진
황실
드로즈
선풍
대상지
하수도
위약금
최면
밝혀냈
레버리지
안종범
기무사
김관용
기웃
날치기
쌓였
스파르타
수증기
아편
휘하
세계유산
스페인어
달아난
지방산
프로그래머
부기
약재
특수강
알아본
여장
웨스턴
##교회
니시
자양
##서울
New
문방
구단주
낱낱이
아련
힐스
두려웠
콘솔
김종국
먹여요
No
값싸
난동
옹진군
도축
묻힌
습한
정보국
기부자
김종민
송강호
##덩어리
한국개발연구원
정육
##우유
##공격
어울렸
배재
볼티모어
나빴
등반
응수
핮니다
나눠져
김보경
윤동주
이뤄지기
외계인
##선지
##애애
2050
단무지
본명
봉산
프로토
특정인
여백
##신라
교육학
별미
신혼집
##해졌
##티넨탈
차두리
간곡
널찍
##지어
어로
모신
흡연자
GC
독촉
신당
네이션
부감
새긴
조깅
노브랜드
난사
##수범
찬찬
캐스트
화교
##르트르
미공
형수
만만찮
엄연히
##민석
직함
조선총
봅시다
비스트
휘감
강유
손쉬
하객
##히드
##이센
역과
##아트
##용지
과오
호텔신라
잠금장치
이끌려
면책
암석
워런
문호
윤회
테헤
440
우러나
도르
분개
어린애
급선무
랭크
말다
서킷
혹여
전기세
귀금속
발매되
늘어선
조선총독부
일군
양식장
성자
코바늘
함의
짱구
종교인
그린벨트
##스름
가압
겉보기
양태
금발
든다는
정청
총통
##97
##흐로
고등교육
시공간
산산
유찰
이웃집
무르익
김만
자도
사무직
KOTRA
천마
팝콘
##ry
대손
취한다
난생
먹히
##수염
##제한
무서웠
경축
니나
철봉
후한
이자이
ICBM
굴레
##다닌
데카르트
바야흐로
피팅
콩고
병살타
##♥♥
경수
삼국사기
이석기
배급사
적막
중령
태화강
양모
고의로
그람
대차
조하
곰곰이
롯데케미칼
프레시
주례
수화기
GW
우선주
골다
투르
압둘
토성
##df
테헤란
칼리지
시발점
야크
경총
취량
삼공사
하야
황영
지선
부풀리
흩어지
제설
분수령
레퍼토리
무결
일신
계세요
유두
동작구
크레이
통신업
박건
현지인
##다리기
1907
빙수
펄펄
장문
뿌려서
심히
##메드
승산
양평군
##맥스
##창호
인천대
1925
세네
부산물
헌데
1935
알베르
최고령
밀려났
발자취
처박
호실
##진우
MA
내놔
당규
들락
##스토크
##호우
쏟아부
닥쳐
맏형
북상
카이사르
진통제
##버릴
알래스카
사이먼
페르난
병무
방공
진찰
튕겨
##도장
전유물
속공
브러시
열혈
열창
틸러
듀엣
##구이
농업기술
티아라
농업기술센터
작은
차분히
박연차
##ate
NBC
진경
직권상정
공양
업장
익혔
장밋빛
##빈다
뒷걸음
세비
레인보
IF
오두
평촌
MRI
방기
하물
나지완
호우
관리사
##기획
QM
이겨야
반월
욯ㅎㅎ
OCI
##을지도
AG
십시요
기입
집중호우
암각
박살
싼타페
##로호
이용해
동창회
숨소리
전압
##신기
내세울
폭발물
헤맸
매워
생업
##열차
사가
고퀄
등록증
서스펜
그르
대한축구
##ight
대한축구협회
##pe
벗겨진
##Hz
견적
하한
아닐까요
쓴맛
서청
왔음
카타
##포로
ISA
제이슨
다각도
딸랑
달리기
WSJ
민물
낙천
어렴풋
땀띠
진품
라길래
절전
##실베이
##실베이니아
펜실베이니아
##92
1943
1918
레인지
틀어막
줄다리기
겨드랑이
호주머니
줄무늬
##나스
튼튼히
선하
포섭
충전재
##83
##약청
넥스트
이라든지
반목
유구
##만치
대별
디디
학연
영결식
빗대
합의서
파괴력
##모닉
가한
식약청
조선왕
발사대
현악
잔재
##96
거뜬히
결손
고흐
변천
애환
입고
자랄
메이플
우니
체득
최병
##자동
돌변
연제
골머리
고학년
##76
리트
부러졌
키를
미드나잇그린색
미드나잇블루색
메탈그레이색
소비효율등급
바람세기조절
공기청정기능
led라이트
베이비핑크색
화이트골드색
인디언핑크색
공기청정성능
코발트블루색
라벤더퍼플색
코타화이트색
파스텔블루색
스카이블루색
전력사용량
샌드스톤색
피치핑크색
바이올렛색
led색상
마사지기능
머스타드색
LED불빛
샌드핑크색
하이엔드급
펄화이트색
웜화이트색
아이보리색
이물질제거
컴퓨터사양
실버메탈색
전기소모량
블랙메탈색
아보카도색
LED효과
다크블루색
LED화면
용달블루색
화이트펄색
블루퍼플색
연베이지색
인디핑크색
오션블루색
로즈핑크색
프리미엄급
그라데이션
코랄블루색
led불빛
전기요금
열전도율
미백효과
색재현력
풍속조절
효율등급
스모키톤
어두운톤
차가운톤
연노랑색
상세스펙
풍량조절
가습효과
난방효과
진보라색
led색
보호기능
메탈색상
냉각효과
눈피로도
코발트색
가습능력
쿨링능력
취사기능
스팀세기
연분홍색
난방능력
발열해소
습도조절
반응속도
라벤더색
따뜻한톤
터보기능
어쿠스틱
펌프소음
라일락색
연보라색
수신감도
냉각효율
인디고색
냉각성능
버건디색
연주황색
딥그린색
쿨링성능
바람조절
핫핑크색
블랙바디
올리브색
통화음량
통화품질
벤치마크
청정능력
파스텔톤
전기용량
안시루멘
무지개색
샴페인색
소모전력
코랄색상
청정기능
제습효율
화이트톤
백라이트
제습용량
제습효과
바람세기
응답속도
가습기능
베이지색
월넛색상
건메탈색
제습기능
소비전력
마감상태
연핑크색
소비효율
딥블루색
공기청정
인식속도
살균기능
통화음질
로딩속도
대기전력
세정기능
살균효과
신호세기
레트로풍
복숭아색
연하늘색
체감속도
색재현율
고사양
커버력
효율성
결착력
발열량
바다색
자주색
겉모양
연료비
정밀도
샌드톤
호환성
보호력
텍스쳐
퀼리티
분홍빛
풍속도
고화력
카멜색
몰입감
연두색
빛세기
반사율
주황빛
분무량
전력량
마감도
투명색
내구성
상아색
표시등
고정력
해상력
필기감
선예도
나뭇결
열효율
황금색
확장성
다홍색
눌림감
부착력
반발력
가습량
제습력
휴대성
절사력
속도감
하늘빛
바탕색
검빨색
청녹색
내구도
타격감
와트수
스팀력
배출량
그립감
컬러감
제습량
투명도
고장률
분사량
과전압
분무력
쿠션감
만듦새
이동성
인식률
표현력
실용성
두께감
첫인상
붉은빛
장미색
물세기
투과성
저가품
황토색
기기값
라임색
차단율
터치감
일체감
구입비
하우징
절삭력
토출량
모노톤
세탁력
필압감
반짝임
앞모습
진회색
안정성
소모량
실버톤
민트색
복원력
우윳빛
이가격
클릭감
입체감
마감재
무채색
결합력
보급형
마감새
바늘땀
투과율
활용도
타건감
색채감
반투명
나무결
보라빛
라운딩
초록빛
파지감
티탄색
견고함
결속력
내구력
검정색
코랄색
깔맞춤
핑크색
연무량
가용성
외장재
청록색
에러율
연회색
수신율
전성비
지지력
스팀량
살구색
팬소음
초코색
선명도
분사력
무소음
퍼플색
고스펙
패키징
우유색
귤색
음감
때깔
잿빛
풍량
겉감
와트
눌림
음압
미색
외향
새틴
풍압
루멘
키감
은빛
밤색
야광
명암
핏감
휘도
필압
유색
금테
네온
음역
흰빛
단색
손맛
도색
저가
조도
광량
제균
투톤